{
  "version": "1.0",
  "truncation": null,
  "padding": null,
  "added_tokens": [
    {
      "id": 0,
      "special": true,
      "content": "[UNK]",
      "single_word": false,
      "lstrip": false,
      "rstrip": false,
      "normalized": false
    },
    {
      "id": 1,
      "special": true,
      "content": "[CLS]",
      "single_word": false,
      "lstrip": false,
      "rstrip": false,
      "normalized": false
    },
    {
      "id": 2,
      "special": true,
      "content": "[SEP]",
      "single_word": false,
      "lstrip": false,
      "rstrip": false,
      "normalized": false
    },
    {
      "id": 3,
      "special": true,
      "content": "[PAD]",
      "single_word": false,
      "lstrip": false,
      "rstrip": false,
      "normalized": false
    },
    {
      "id": 4,
      "special": true,
      "content": "[MASK]",
      "single_word": false,
      "lstrip": false,
      "rstrip": false,
      "normalized": false
    }
  ],
  "normalizer": null,
  "pre_tokenizer": {
    "type": "Whitespace"
  },
  "post_processor": null,
  "decoder": null,
  "model": {
    "type": "BPE",
    "dropout": null,
    "unk_token": null,
    "continuing_subword_prefix": null,
    "end_of_word_suffix": null,
    "fuse_unk": false,
    "vocab": {
      "[UNK]": 0,
      "[CLS]": 1,
      "[SEP]": 2,
      "[PAD]": 3,
      "[MASK]": 4,
      "#": 5,
      "%": 6,
      "&": 7,
      "'": 8,
      "(": 9,
      ")": 10,
      "+": 11,
      "-": 12,
      "/": 13,
      "0": 14,
      "1": 15,
      "2": 16,
      "3": 17,
      "4": 18,
      "5": 19,
      "6": 20,
      "7": 21,
      "8": 22,
      "9": 23,
      ";": 24,
      "<": 25,
      "=": 26,
      ">": 27,
      "?": 28,
      "A": 29,
      "B": 30,
      "C": 31,
      "D": 32,
      "E": 33,
      "F": 34,
      "G": 35,
      "H": 36,
      "I": 37,
      "J": 38,
      "K": 39,
      "L": 40,
      "M": 41,
      "N": 42,
      "O": 43,
      "P": 44,
      "Q": 45,
      "R": 46,
      "S": 47,
      "T": 48,
      "U": 49,
      "V": 50,
      "W": 51,
      "X": 52,
      "Y": 53,
      "Z": 54,
      "[": 55,
      "^": 56,
      "_": 57,
      "a": 58,
      "b": 59,
      "c": 60,
      "d": 61,
      "e": 62,
      "f": 63,
      "g": 64,
      "h": 65,
      "i": 66,
      "j": 67,
      "k": 68,
      "l": 69,
      "m": 70,
      "n": 71,
      "o": 72,
      "p": 73,
      "q": 74,
      "r": 75,
      "s": 76,
      "t": 77,
      "u": 78,
      "v": 79,
      "w": 80,
      "x": 81,
      "y": 82,
      "z": 83,
      "~": 84,
      "°": 85,
      "·": 86,
      "–": 87,
      "‘": 88,
      "’": 89,
      "…": 90,
      "′": 91,
      "※": 92,
      "☆": 93,
      "♡": 94,
      "♥": 95,
      "♭": 96,
      "。": 97,
      "「": 98,
      "」": 99,
      "【": 100,
      "】": 101,
      "ㄱ": 102,
      "ㄴ": 103,
      "ㄷ": 104,
      "ㄹ": 105,
      "ㅁ": 106,
      "ㅂ": 107,
      "ㅅ": 108,
      "ㅆ": 109,
      "ㅇ": 110,
      "ㅈ": 111,
      "ㅋ": 112,
      "ㅎ": 113,
      "ㅠ": 114,
      "ㅡ": 115,
      "㈜": 116,
      "一": 117,
      "三": 118,
      "世": 119,
      "之": 120,
      "于": 121,
      "井": 122,
      "人": 123,
      "仙": 124,
      "佑": 125,
      "佛": 126,
      "作": 127,
      "佳": 128,
      "倀": 129,
      "備": 130,
      "傳": 131,
      "公": 132,
      "別": 133,
      "劍": 134,
      "劑": 135,
      "劒": 136,
      "功": 137,
      "助": 138,
      "南": 139,
      "取": 140,
      "史": 141,
      "司": 142,
      "名": 143,
      "品": 144,
      "唐": 145,
      "商": 146,
      "四": 147,
      "回": 148,
      "國": 149,
      "士": 150,
      "夜": 151,
      "夢": 152,
      "天": 153,
      "奇": 154,
      "女": 155,
      "妃": 156,
      "子": 157,
      "孔": 158,
      "孤": 159,
      "宮": 160,
      "家": 161,
      "容": 162,
      "專": 163,
      "尊": 164,
      "對": 165,
      "屋": 166,
      "巫": 167,
      "市": 168,
      "幻": 169,
      "張": 170,
      "心": 171,
      "怪": 172,
      "患": 173,
      "悲": 174,
      "情": 175,
      "惡": 176,
      "想": 177,
      "愛": 178,
      "慕": 179,
      "戱": 180,
      "所": 181,
      "才": 182,
      "新": 183,
      "日": 184,
      "星": 185,
      "曰": 186,
      "書": 187,
      "月": 188,
      "有": 189,
      "村": 190,
      "桃": 191,
      "梁": 192,
      "極": 193,
      "步": 194,
      "武": 195,
      "歸": 196,
      "死": 197,
      "毒": 198,
      "氣": 199,
      "河": 200,
      "法": 201,
      "海": 202,
      "滅": 203,
      "火": 204,
      "烏": 205,
      "無": 206,
      "焰": 207,
      "煞": 208,
      "熱": 209,
      "燕": 210,
      "爛": 211,
      "狂": 212,
      "狼": 213,
      "獨": 214,
      "王": 215,
      "現": 216,
      "理": 217,
      "生": 218,
      "男": 219,
      "社": 220,
      "神": 221,
      "祭": 222,
      "窓": 223,
      "筆": 224,
      "紀": 225,
      "絶": 226,
      "緣": 227,
      "美": 228,
      "羽": 229,
      "者": 230,
      "聽": 231,
      "肉": 232,
      "至": 233,
      "色": 234,
      "花": 235,
      "虫": 236,
      "血": 237,
      "行": 238,
      "裔": 239,
      "西": 240,
      "解": 241,
      "記": 242,
      "詩": 243,
      "談": 244,
      "貪": 245,
      "超": 246,
      "足": 247,
      "轉": 248,
      "連": 249,
      "遊": 250,
      "道": 251,
      "遼": 252,
      "都": 253,
      "醫": 254,
      "銀": 255,
      "錄": 256,
      "鑑": 257,
      "門": 258,
      "閃": 259,
      "集": 260,
      "雷": 261,
      "韓": 262,
      "音": 263,
      "風": 264,
      "飛": 265,
      "香": 266,
      "鬼": 267,
      "魔": 268,
      "鷹": 269,
      "가": 270,
      "각": 271,
      "간": 272,
      "갇": 273,
      "갈": 274,
      "감": 275,
      "갑": 276,
      "값": 277,
      "갓": 278,
      "갔": 279,
      "강": 280,
      "갖": 281,
      "갗": 282,
      "같": 283,
      "갚": 284,
      "갛": 285,
      "개": 286,
      "객": 287,
      "갤": 288,
      "갬": 289,
      "갯": 290,
      "갱": 291,
      "걍": 292,
      "거": 293,
      "걱": 294,
      "건": 295,
      "걷": 296,
      "걸": 297,
      "검": 298,
      "겁": 299,
      "것": 300,
      "겉": 301,
      "게": 302,
      "겐": 303,
      "겔": 304,
      "겜": 305,
      "겟": 306,
      "겠": 307,
      "겨": 308,
      "격": 309,
      "견": 310,
      "결": 311,
      "겸": 312,
      "겹": 313,
      "겼": 314,
      "경": 315,
      "곁": 316,
      "계": 317,
      "곗": 318,
      "고": 319,
      "곡": 320,
      "곤": 321,
      "곧": 322,
      "골": 323,
      "곰": 324,
      "곱": 325,
      "곳": 326,
      "공": 327,
      "과": 328,
      "곽": 329,
      "관": 330,
      "괄": 331,
      "광": 332,
      "괜": 333,
      "괭": 334,
      "괴": 335,
      "굉": 336,
      "교": 337,
      "구": 338,
      "국": 339,
      "군": 340,
      "굳": 341,
      "굴": 342,
      "굶": 343,
      "굽": 344,
      "굿": 345,
      "궁": 346,
      "궂": 347,
      "권": 348,
      "궐": 349,
      "궤": 350,
      "귀": 351,
      "귄": 352,
      "귈": 353,
      "귓": 354,
      "규": 355,
      "균": 356,
      "귤": 357,
      "귱": 358,
      "그": 359,
      "극": 360,
      "근": 361,
      "글": 362,
      "긁": 363,
      "금": 364,
      "급": 365,
      "긋": 366,
      "긍": 367,
      "긔": 368,
      "기": 369,
      "긴": 370,
      "길": 371,
      "김": 372,
      "깃": 373,
      "깅": 374,
      "깊": 375,
      "까": 376,
      "깍": 377,
      "깎": 378,
      "깐": 379,
      "깔": 380,
      "깜": 381,
      "깝": 382,
      "깟": 383,
      "깡": 384,
      "깥": 385,
      "깨": 386,
      "깬": 387,
      "깹": 388,
      "깽": 389,
      "꺼": 390,
      "꺽": 391,
      "꺾": 392,
      "껀": 393,
      "껄": 394,
      "껌": 395,
      "껍": 396,
      "껏": 397,
      "께": 398,
      "껴": 399,
      "꼬": 400,
      "꼭": 401,
      "꼰": 402,
      "꼴": 403,
      "꼼": 404,
      "꼽": 405,
      "꽁": 406,
      "꽂": 407,
      "꽃": 408,
      "꽈": 409,
      "꽐": 410,
      "꽤": 411,
      "꾸": 412,
      "꾼": 413,
      "꿀": 414,
      "꿇": 415,
      "꿈": 416,
      "꿉": 417,
      "꿔": 418,
      "꿨": 419,
      "꿰": 420,
      "뀌": 421,
      "뀐": 422,
      "뀜": 423,
      "뀽": 424,
      "끄": 425,
      "끈": 426,
      "끊": 427,
      "끌": 428,
      "끓": 429,
      "끔": 430,
      "끗": 431,
      "끝": 432,
      "끼": 433,
      "끽": 434,
      "낄": 435,
      "낌": 436,
      "나": 437,
      "낙": 438,
      "낚": 439,
      "난": 440,
      "날": 441,
      "낡": 442,
      "남": 443,
      "납": 444,
      "낫": 445,
      "났": 446,
      "낭": 447,
      "낮": 448,
      "낯": 449,
      "낱": 450,
      "낳": 451,
      "내": 452,
      "낸": 453,
      "낼": 454,
      "냄": 455,
      "냅": 456,
      "냈": 457,
      "냉": 458,
      "냐": 459,
      "냠": 460,
      "냥": 461,
      "너": 462,
      "넋": 463,
      "넌": 464,
      "널": 465,
      "넓": 466,
      "넘": 467,
      "넛": 468,
      "넣": 469,
      "네": 470,
      "넥": 471,
      "넨": 472,
      "넬": 473,
      "넷": 474,
      "녀": 475,
      "녁": 476,
      "년": 477,
      "념": 478,
      "녕": 479,
      "녘": 480,
      "녜": 481,
      "노": 482,
      "녹": 483,
      "논": 484,
      "놀": 485,
      "놈": 486,
      "놋": 487,
      "농": 488,
      "높": 489,
      "놓": 490,
      "놔": 491,
      "놨": 492,
      "뇌": 493,
      "누": 494,
      "눈": 495,
      "눌": 496,
      "눔": 497,
      "눠": 498,
      "뉘": 499,
      "뉴": 500,
      "느": 501,
      "늑": 502,
      "는": 503,
      "늘": 504,
      "늙": 505,
      "능": 506,
      "늦": 507,
      "늪": 508,
      "늬": 509,
      "니": 510,
      "닉": 511,
      "닌": 512,
      "닐": 513,
      "님": 514,
      "닙": 515,
      "닛": 516,
      "닝": 517,
      "다": 518,
      "닥": 519,
      "닦": 520,
      "단": 521,
      "닫": 522,
      "달": 523,
      "닭": 524,
      "닮": 525,
      "담": 526,
      "답": 527,
      "닷": 528,
      "당": 529,
      "닻": 530,
      "닼": 531,
      "닿": 532,
      "대": 533,
      "댁": 534,
      "댄": 535,
      "댈": 536,
      "댓": 537,
      "댔": 538,
      "댕": 539,
      "더": 540,
      "덕": 541,
      "던": 542,
      "덜": 543,
      "덟": 544,
      "덤": 545,
      "덥": 546,
      "덩": 547,
      "덫": 548,
      "덮": 549,
      "데": 550,
      "덱": 551,
      "덴": 552,
      "델": 553,
      "뎁": 554,
      "뎃": 555,
      "뎅": 556,
      "뎌": 557,
      "뎐": 558,
      "도": 559,
      "독": 560,
      "돈": 561,
      "돋": 562,
      "돌": 563,
      "돔": 564,
      "돕": 565,
      "동": 566,
      "돼": 567,
      "됐": 568,
      "되": 569,
      "된": 570,
      "될": 571,
      "됨": 572,
      "됩": 573,
      "됫": 574,
      "됴": 575,
      "두": 576,
      "둑": 577,
      "둔": 578,
      "둘": 579,
      "둠": 580,
      "둡": 581,
      "둥": 582,
      "둬": 583,
      "뒀": 584,
      "뒤": 585,
      "뒷": 586,
      "듀": 587,
      "드": 588,
      "득": 589,
      "든": 590,
      "듣": 591,
      "들": 592,
      "듦": 593,
      "듬": 594,
      "듭": 595,
      "듯": 596,
      "등": 597,
      "디": 598,
      "딕": 599,
      "딘": 600,
      "딜": 601,
      "딤": 602,
      "딥": 603,
      "딧": 604,
      "딨": 605,
      "딩": 606,
      "따": 607,
      "딱": 608,
      "딴": 609,
      "딸": 610,
      "땄": 611,
      "땅": 612,
      "때": 613,
      "땐": 614,
      "땜": 615,
      "땡": 616,
      "떄": 617,
      "떠": 618,
      "떡": 619,
      "떤": 620,
      "떨": 621,
      "떴": 622,
      "떻": 623,
      "떼": 624,
      "뗌": 625,
      "또": 626,
      "똑": 627,
      "똘": 628,
      "똥": 629,
      "뚝": 630,
      "뚤": 631,
      "뚫": 632,
      "뚱": 633,
      "뛰": 634,
      "뛴": 635,
      "뜀": 636,
      "뜨": 637,
      "뜬": 638,
      "뜯": 639,
      "뜰": 640,
      "뜸": 641,
      "뜻": 642,
      "띄": 643,
      "띠": 644,
      "띵": 645,
      "라": 646,
      "락": 647,
      "란": 648,
      "랄": 649,
      "람": 650,
      "랍": 651,
      "랏": 652,
      "랐": 653,
      "랑": 654,
      "랖": 655,
      "래": 656,
      "랙": 657,
      "랜": 658,
      "램": 659,
      "랩": 660,
      "랫": 661,
      "랬": 662,
      "랭": 663,
      "랴": 664,
      "략": 665,
      "량": 666,
      "러": 667,
      "럭": 668,
      "런": 669,
      "럴": 670,
      "럼": 671,
      "럽": 672,
      "럿": 673,
      "렁": 674,
      "렇": 675,
      "레": 676,
      "렉": 677,
      "렌": 678,
      "렐": 679,
      "렘": 680,
      "렙": 681,
      "렛": 682,
      "렝": 683,
      "려": 684,
      "력": 685,
      "련": 686,
      "렬": 687,
      "렴": 688,
      "렵": 689,
      "렷": 690,
      "렸": 691,
      "령": 692,
      "례": 693,
      "로": 694,
      "록": 695,
      "론": 696,
      "롤": 697,
      "롬": 698,
      "롭": 699,
      "롯": 700,
      "롱": 701,
      "롸": 702,
      "뢰": 703,
      "료": 704,
      "룡": 705,
      "루": 706,
      "룩": 707,
      "룬": 708,
      "룰": 709,
      "룸": 710,
      "룹": 711,
      "룻": 712,
      "룽": 713,
      "뤄": 714,
      "뤼": 715,
      "류": 716,
      "륙": 717,
      "륜": 718,
      "률": 719,
      "륭": 720,
      "르": 721,
      "륵": 722,
      "른": 723,
      "를": 724,
      "름": 725,
      "릅": 726,
      "릇": 727,
      "릉": 728,
      "릎": 729,
      "리": 730,
      "릭": 731,
      "린": 732,
      "릴": 733,
      "림": 734,
      "립": 735,
      "릿": 736,
      "링": 737,
      "마": 738,
      "막": 739,
      "만": 740,
      "많": 741,
      "말": 742,
      "맑": 743,
      "맘": 744,
      "맙": 745,
      "맛": 746,
      "망": 747,
      "맞": 748,
      "맡": 749,
      "맣": 750,
      "매": 751,
      "맥": 752,
      "맨": 753,
      "맴": 754,
      "맵": 755,
      "맷": 756,
      "맹": 757,
      "맺": 758,
      "머": 759,
      "먹": 760,
      "먼": 761,
      "멀": 762,
      "멈": 763,
      "멋": 764,
      "멍": 765,
      "메": 766,
      "멕": 767,
      "멘": 768,
      "멜": 769,
      "멤": 770,
      "멩": 771,
      "며": 772,
      "멱": 773,
      "면": 774,
      "멸": 775,
      "몀": 776,
      "명": 777,
      "몇": 778,
      "모": 779,
      "목": 780,
      "몫": 781,
      "몬": 782,
      "몰": 783,
      "몸": 784,
      "몹": 785,
      "못": 786,
      "몽": 787,
      "뫼": 788,
      "묄": 789,
      "묘": 790,
      "무": 791,
      "묵": 792,
      "묶": 793,
      "문": 794,
      "묻": 795,
      "물": 796,
      "뭅": 797,
      "뭇": 798,
      "뭉": 799,
      "뭐": 800,
      "뭔": 801,
      "뭘": 802,
      "뭣": 803,
      "뮤": 804,
      "뮬": 805,
      "므": 806,
      "믈": 807,
      "믐": 808,
      "미": 809,
      "믹": 810,
      "민": 811,
      "믿": 812,
      "밀": 813,
      "밈": 814,
      "밉": 815,
      "밋": 816,
      "밌": 817,
      "밍": 818,
      "및": 819,
      "밑": 820,
      "바": 821,
      "박": 822,
      "밖": 823,
      "반": 824,
      "받": 825,
      "발": 826,
      "밝": 827,
      "밟": 828,
      "밤": 829,
      "밥": 830,
      "밧": 831,
      "방": 832,
      "밭": 833,
      "배": 834,
      "백": 835,
      "밴": 836,
      "밸": 837,
      "뱀": 838,
      "뱃": 839,
      "뱅": 840,
      "뱌": 841,
      "버": 842,
      "벅": 843,
      "번": 844,
      "벌": 845,
      "범": 846,
      "법": 847,
      "벗": 848,
      "벙": 849,
      "벚": 850,
      "베": 851,
      "벤": 852,
      "벨": 853,
      "벰": 854,
      "벳": 855,
      "벼": 856,
      "벽": 857,
      "변": 858,
      "별": 859,
      "병": 860,
      "볕": 861,
      "보": 862,
      "복": 863,
      "볶": 864,
      "본": 865,
      "볼": 866,
      "봄": 867,
      "봅": 868,
      "봇": 869,
      "봉": 870,
      "봐": 871,
      "봤": 872,
      "봬": 873,
      "뵈": 874,
      "뵙": 875,
      "부": 876,
      "북": 877,
      "분": 878,
      "불": 879,
      "붉": 880,
      "붓": 881,
      "붕": 882,
      "붙": 883,
      "뷔": 884,
      "뷰": 885,
      "브": 886,
      "븐": 887,
      "블": 888,
      "븝": 889,
      "비": 890,
      "빅": 891,
      "빈": 892,
      "빌": 893,
      "빕": 894,
      "빗": 895,
      "빙": 896,
      "빚": 897,
      "빛": 898,
      "빠": 899,
      "빡": 900,
      "빤": 901,
      "빨": 902,
      "빱": 903,
      "빴": 904,
      "빵": 905,
      "빼": 906,
      "빽": 907,
      "뺀": 908,
      "뺏": 909,
      "뺐": 910,
      "뺨": 911,
      "뻐": 912,
      "뻑": 913,
      "뻔": 914,
      "뻤": 915,
      "뻥": 916,
      "뼈": 917,
      "뼘": 918,
      "뽀": 919,
      "뽑": 920,
      "뽕": 921,
      "뿅": 922,
      "뿌": 923,
      "뿐": 924,
      "뿔": 925,
      "뿜": 926,
      "쁘": 927,
      "쁜": 928,
      "쁠": 929,
      "쁨": 930,
      "쁩": 931,
      "삐": 932,
      "삥": 933,
      "사": 934,
      "삭": 935,
      "산": 936,
      "살": 937,
      "삵": 938,
      "삶": 939,
      "삼": 940,
      "삽": 941,
      "삿": 942,
      "샀": 943,
      "상": 944,
      "새": 945,
      "색": 946,
      "샌": 947,
      "샐": 948,
      "샘": 949,
      "샛": 950,
      "생": 951,
      "샤": 952,
      "샨": 953,
      "샬": 954,
      "샴": 955,
      "샵": 956,
      "샷": 957,
      "샹": 958,
      "섀": 959,
      "서": 960,
      "석": 961,
      "섞": 962,
      "선": 963,
      "섣": 964,
      "설": 965,
      "섬": 966,
      "섭": 967,
      "섯": 968,
      "섰": 969,
      "성": 970,
      "세": 971,
      "섹": 972,
      "센": 973,
      "셀": 974,
      "셈": 975,
      "셉": 976,
      "셋": 977,
      "셔": 978,
      "션": 979,
      "셜": 980,
      "셨": 981,
      "셰": 982,
      "셴": 983,
      "셸": 984,
      "소": 985,
      "속": 986,
      "손": 987,
      "솔": 988,
      "솜": 989,
      "솟": 990,
      "송": 991,
      "쇄": 992,
      "쇠": 993,
      "쇼": 994,
      "숍": 995,
      "수": 996,
      "숙": 997,
      "순": 998,
      "술": 999,
      "숨": 1000,
      "숫": 1001,
      "숭": 1002,
      "숲": 1003,
      "쉐": 1004,
      "쉘": 1005,
      "쉬": 1006,
      "쉰": 1007,
      "쉴": 1008,
      "쉼": 1009,
      "쉽": 1010,
      "쉿": 1011,
      "슈": 1012,
      "슌": 1013,
      "슐": 1014,
      "슛": 1015,
      "스": 1016,
      "슨": 1017,
      "슬": 1018,
      "슴": 1019,
      "습": 1020,
      "승": 1021,
      "시": 1022,
      "식": 1023,
      "신": 1024,
      "싣": 1025,
      "실": 1026,
      "싫": 1027,
      "심": 1028,
      "십": 1029,
      "싯": 1030,
      "싱": 1031,
      "싶": 1032,
      "싸": 1033,
      "싹": 1034,
      "싼": 1035,
      "쌀": 1036,
      "쌈": 1037,
      "쌉": 1038,
      "쌌": 1039,
      "쌍": 1040,
      "쌓": 1041,
      "쌔": 1042,
      "쌘": 1043,
      "쌤": 1044,
      "써": 1045,
      "썩": 1046,
      "썬": 1047,
      "썰": 1048,
      "썸": 1049,
      "썹": 1050,
      "썼": 1051,
      "썽": 1052,
      "쎄": 1053,
      "쎈": 1054,
      "쎔": 1055,
      "쏘": 1056,
      "쏜": 1057,
      "쏟": 1058,
      "쏠": 1059,
      "쏭": 1060,
      "쏴": 1061,
      "쐈": 1062,
      "쑤": 1063,
      "쑥": 1064,
      "쓰": 1065,
      "쓴": 1066,
      "쓸": 1067,
      "씀": 1068,
      "씁": 1069,
      "씌": 1070,
      "씨": 1071,
      "씩": 1072,
      "씬": 1073,
      "씰": 1074,
      "씹": 1075,
      "씽": 1076,
      "아": 1077,
      "악": 1078,
      "안": 1079,
      "앉": 1080,
      "않": 1081,
      "알": 1082,
      "앓": 1083,
      "암": 1084,
      "압": 1085,
      "앗": 1086,
      "았": 1087,
      "앙": 1088,
      "앞": 1089,
      "애": 1090,
      "액": 1091,
      "앤": 1092,
      "앨": 1093,
      "앱": 1094,
      "앳": 1095,
      "앵": 1096,
      "야": 1097,
      "약": 1098,
      "얀": 1099,
      "얄": 1100,
      "얌": 1101,
      "양": 1102,
      "얕": 1103,
      "얗": 1104,
      "얘": 1105,
      "어": 1106,
      "억": 1107,
      "언": 1108,
      "얻": 1109,
      "얼": 1110,
      "얽": 1111,
      "엄": 1112,
      "업": 1113,
      "없": 1114,
      "엇": 1115,
      "었": 1116,
      "엉": 1117,
      "엌": 1118,
      "엎": 1119,
      "에": 1120,
      "엑": 1121,
      "엔": 1122,
      "엘": 1123,
      "엠": 1124,
      "엣": 1125,
      "엥": 1126,
      "여": 1127,
      "역": 1128,
      "엮": 1129,
      "연": 1130,
      "열": 1131,
      "엷": 1132,
      "염": 1133,
      "엽": 1134,
      "엾": 1135,
      "엿": 1136,
      "였": 1137,
      "영": 1138,
      "옆": 1139,
      "예": 1140,
      "옌": 1141,
      "옐": 1142,
      "옛": 1143,
      "오": 1144,
      "옥": 1145,
      "온": 1146,
      "올": 1147,
      "옳": 1148,
      "옴": 1149,
      "옵": 1150,
      "옷": 1151,
      "옹": 1152,
      "와": 1153,
      "왁": 1154,
      "완": 1155,
      "왈": 1156,
      "왓": 1157,
      "왔": 1158,
      "왕": 1159,
      "왜": 1160,
      "왠": 1161,
      "외": 1162,
      "왼": 1163,
      "요": 1164,
      "욕": 1165,
      "욘": 1166,
      "용": 1167,
      "우": 1168,
      "욱": 1169,
      "운": 1170,
      "울": 1171,
      "움": 1172,
      "웁": 1173,
      "웃": 1174,
      "웅": 1175,
      "워": 1176,
      "원": 1177,
      "월": 1178,
      "웠": 1179,
      "웡": 1180,
      "웨": 1181,
      "웬": 1182,
      "웰": 1183,
      "웹": 1184,
      "위": 1185,
      "윈": 1186,
      "윌": 1187,
      "윗": 1188,
      "윙": 1189,
      "유": 1190,
      "육": 1191,
      "윤": 1192,
      "율": 1193,
      "윳": 1194,
      "융": 1195,
      "으": 1196,
      "윽": 1197,
      "은": 1198,
      "을": 1199,
      "읊": 1200,
      "음": 1201,
      "읍": 1202,
      "응": 1203,
      "의": 1204,
      "이": 1205,
      "익": 1206,
      "인": 1207,
      "일": 1208,
      "읽": 1209,
      "잃": 1210,
      "임": 1211,
      "입": 1212,
      "잇": 1213,
      "있": 1214,
      "잉": 1215,
      "잊": 1216,
      "잎": 1217,
      "자": 1218,
      "작": 1219,
      "잔": 1220,
      "잖": 1221,
      "잘": 1222,
      "잠": 1223,
      "잡": 1224,
      "잣": 1225,
      "잤": 1226,
      "장": 1227,
      "잦": 1228,
      "재": 1229,
      "잭": 1230,
      "잼": 1231,
      "잽": 1232,
      "잿": 1233,
      "쟁": 1234,
      "쟈": 1235,
      "쟝": 1236,
      "쟤": 1237,
      "저": 1238,
      "적": 1239,
      "전": 1240,
      "절": 1241,
      "젊": 1242,
      "점": 1243,
      "접": 1244,
      "정": 1245,
      "젖": 1246,
      "제": 1247,
      "젝": 1248,
      "젠": 1249,
      "젤": 1250,
      "젬": 1251,
      "젯": 1252,
      "져": 1253,
      "젼": 1254,
      "졌": 1255,
      "조": 1256,
      "족": 1257,
      "존": 1258,
      "졸": 1259,
      "좀": 1260,
      "좁": 1261,
      "종": 1262,
      "좆": 1263,
      "좇": 1264,
      "좋": 1265,
      "좌": 1266,
      "죄": 1267,
      "죗": 1268,
      "죠": 1269,
      "주": 1270,
      "죽": 1271,
      "준": 1272,
      "줄": 1273,
      "줌": 1274,
      "줍": 1275,
      "줏": 1276,
      "중": 1277,
      "줘": 1278,
      "줬": 1279,
      "쥐": 1280,
      "쥔": 1281,
      "쥬": 1282,
      "쥴": 1283,
      "즈": 1284,
      "즉": 1285,
      "즌": 1286,
      "즐": 1287,
      "즘": 1288,
      "증": 1289,
      "지": 1290,
      "직": 1291,
      "진": 1292,
      "질": 1293,
      "짊": 1294,
      "짐": 1295,
      "집": 1296,
      "짓": 1297,
      "징": 1298,
      "짖": 1299,
      "짙": 1300,
      "짚": 1301,
      "짜": 1302,
      "짝": 1303,
      "짠": 1304,
      "짤": 1305,
      "짧": 1306,
      "짬": 1307,
      "짭": 1308,
      "짱": 1309,
      "째": 1310,
      "쨌": 1311,
      "쨩": 1312,
      "쩌": 1313,
      "쩍": 1314,
      "쩐": 1315,
      "쩔": 1316,
      "쩡": 1317,
      "쩨": 1318,
      "쪄": 1319,
      "쪼": 1320,
      "쪽": 1321,
      "쫌": 1322,
      "쫒": 1323,
      "쫓": 1324,
      "쫙": 1325,
      "쬐": 1326,
      "쭈": 1327,
      "쭐": 1328,
      "쯤": 1329,
      "찌": 1330,
      "찍": 1331,
      "찐": 1332,
      "찔": 1333,
      "찜": 1334,
      "찢": 1335,
      "차": 1336,
      "착": 1337,
      "찬": 1338,
      "찮": 1339,
      "찰": 1340,
      "참": 1341,
      "찻": 1342,
      "창": 1343,
      "찾": 1344,
      "채": 1345,
      "책": 1346,
      "챈": 1347,
      "챌": 1348,
      "챔": 1349,
      "챕": 1350,
      "챗": 1351,
      "챠": 1352,
      "처": 1353,
      "척": 1354,
      "천": 1355,
      "철": 1356,
      "첨": 1357,
      "첩": 1358,
      "첫": 1359,
      "청": 1360,
      "체": 1361,
      "첵": 1362,
      "첸": 1363,
      "쳐": 1364,
      "쳤": 1365,
      "쳥": 1366,
      "초": 1367,
      "촉": 1368,
      "촌": 1369,
      "촛": 1370,
      "총": 1371,
      "촬": 1372,
      "최": 1373,
      "추": 1374,
      "축": 1375,
      "춘": 1376,
      "출": 1377,
      "춤": 1378,
      "춥": 1379,
      "춧": 1380,
      "충": 1381,
      "춰": 1382,
      "취": 1383,
      "츠": 1384,
      "측": 1385,
      "츤": 1386,
      "츨": 1387,
      "층": 1388,
      "치": 1389,
      "칙": 1390,
      "친": 1391,
      "칠": 1392,
      "침": 1393,
      "칩": 1394,
      "칫": 1395,
      "칭": 1396,
      "카": 1397,
      "칵": 1398,
      "칸": 1399,
      "칼": 1400,
      "캄": 1401,
      "캅": 1402,
      "캐": 1403,
      "캔": 1404,
      "캘": 1405,
      "캠": 1406,
      "캡": 1407,
      "캣": 1408,
      "캤": 1409,
      "캬": 1410,
      "커": 1411,
      "컨": 1412,
      "컬": 1413,
      "컴": 1414,
      "컵": 1415,
      "컷": 1416,
      "케": 1417,
      "켄": 1418,
      "켈": 1419,
      "켓": 1420,
      "켜": 1421,
      "켠": 1422,
      "켰": 1423,
      "코": 1424,
      "콕": 1425,
      "콘": 1426,
      "콜": 1427,
      "콤": 1428,
      "콩": 1429,
      "콰": 1430,
      "콴": 1431,
      "콸": 1432,
      "쾌": 1433,
      "쿄": 1434,
      "쿠": 1435,
      "쿤": 1436,
      "쿨": 1437,
      "쿰": 1438,
      "쿵": 1439,
      "쿼": 1440,
      "퀄": 1441,
      "퀘": 1442,
      "퀴": 1443,
      "퀸": 1444,
      "퀼": 1445,
      "큐": 1446,
      "큘": 1447,
      "큥": 1448,
      "크": 1449,
      "큰": 1450,
      "클": 1451,
      "큼": 1452,
      "키": 1453,
      "킥": 1454,
      "킨": 1455,
      "킬": 1456,
      "킴": 1457,
      "킷": 1458,
      "킹": 1459,
      "타": 1460,
      "탁": 1461,
      "탄": 1462,
      "탈": 1463,
      "탐": 1464,
      "탑": 1465,
      "탓": 1466,
      "탔": 1467,
      "탕": 1468,
      "태": 1469,
      "택": 1470,
      "탠": 1471,
      "탤": 1472,
      "탭": 1473,
      "탯": 1474,
      "탱": 1475,
      "터": 1476,
      "턴": 1477,
      "털": 1478,
      "텀": 1479,
      "텁": 1480,
      "테": 1481,
      "텍": 1482,
      "텐": 1483,
      "텔": 1484,
      "템": 1485,
      "텝": 1486,
      "텟": 1487,
      "톄": 1488,
      "토": 1489,
      "톡": 1490,
      "톤": 1491,
      "톨": 1492,
      "톰": 1493,
      "톱": 1494,
      "톳": 1495,
      "통": 1496,
      "퇴": 1497,
      "투": 1498,
      "툰": 1499,
      "툴": 1500,
      "툼": 1501,
      "퉁": 1502,
      "튀": 1503,
      "튜": 1504,
      "튠": 1505,
      "튤": 1506,
      "트": 1507,
      "특": 1508,
      "튼": 1509,
      "튿": 1510,
      "틀": 1511,
      "틈": 1512,
      "틋": 1513,
      "티": 1514,
      "틱": 1515,
      "틴": 1516,
      "틸": 1517,
      "팀": 1518,
      "팁": 1519,
      "팅": 1520,
      "파": 1521,
      "팍": 1522,
      "판": 1523,
      "팔": 1524,
      "팜": 1525,
      "팝": 1526,
      "팟": 1527,
      "팡": 1528,
      "팥": 1529,
      "패": 1530,
      "팩": 1531,
      "팬": 1532,
      "팰": 1533,
      "팸": 1534,
      "팽": 1535,
      "퍼": 1536,
      "펀": 1537,
      "펄": 1538,
      "펌": 1539,
      "펑": 1540,
      "페": 1541,
      "펙": 1542,
      "펜": 1543,
      "펠": 1544,
      "펫": 1545,
      "펭": 1546,
      "펴": 1547,
      "편": 1548,
      "펼": 1549,
      "폈": 1550,
      "평": 1551,
      "폐": 1552,
      "포": 1553,
      "폭": 1554,
      "폰": 1555,
      "폴": 1556,
      "폼": 1557,
      "폿": 1558,
      "퐁": 1559,
      "표": 1560,
      "푸": 1561,
      "푹": 1562,
      "푼": 1563,
      "풀": 1564,
      "품": 1565,
      "풋": 1566,
      "풍": 1567,
      "퓨": 1568,
      "퓸": 1569,
      "프": 1570,
      "픈": 1571,
      "플": 1572,
      "픔": 1573,
      "피": 1574,
      "픽": 1575,
      "핀": 1576,
      "필": 1577,
      "핍": 1578,
      "핏": 1579,
      "핑": 1580,
      "하": 1581,
      "학": 1582,
      "한": 1583,
      "할": 1584,
      "핥": 1585,
      "함": 1586,
      "합": 1587,
      "핫": 1588,
      "항": 1589,
      "해": 1590,
      "핵": 1591,
      "핸": 1592,
      "핼": 1593,
      "햄": 1594,
      "햇": 1595,
      "했": 1596,
      "행": 1597,
      "향": 1598,
      "허": 1599,
      "헌": 1600,
      "헐": 1601,
      "험": 1602,
      "헛": 1603,
      "헝": 1604,
      "헤": 1605,
      "헥": 1606,
      "헨": 1607,
      "헬": 1608,
      "헴": 1609,
      "헷": 1610,
      "혀": 1611,
      "혁": 1612,
      "현": 1613,
      "혈": 1614,
      "혐": 1615,
      "협": 1616,
      "혔": 1617,
      "형": 1618,
      "혜": 1619,
      "호": 1620,
      "혹": 1621,
      "혼": 1622,
      "홀": 1623,
      "홈": 1624,
      "홉": 1625,
      "홋": 1626,
      "홍": 1627,
      "화": 1628,
      "확": 1629,
      "환": 1630,
      "활": 1631,
      "홧": 1632,
      "황": 1633,
      "횃": 1634,
      "회": 1635,
      "획": 1636,
      "횡": 1637,
      "효": 1638,
      "후": 1639,
      "훅": 1640,
      "훈": 1641,
      "훌": 1642,
      "훔": 1643,
      "훤": 1644,
      "훼": 1645,
      "휀": 1646,
      "휘": 1647,
      "휠": 1648,
      "휩": 1649,
      "휴": 1650,
      "휼": 1651,
      "흉": 1652,
      "흐": 1653,
      "흑": 1654,
      "흔": 1655,
      "흘": 1656,
      "흙": 1657,
      "흠": 1658,
      "흡": 1659,
      "흥": 1660,
      "흩": 1661,
      "희": 1662,
      "흰": 1663,
      "히": 1664,
      "힌": 1665,
      "힐": 1666,
      "힘": 1667,
      "힙": 1668,
      "％": 1669,
      "［": 1670,
      "］": 1671,
      "었다": 1672,
      "천재": 1673,
      "되었다": 1674,
      "니다": 1675,
      "회귀": 1676,
      "사랑": 1677,
      "세계": 1678,
      "데미": 1679,
      "아카": 1680,
      "아카데미": 1681,
      "헌터": 1682,
      "마법": 1683,
      "에서": 1684,
      "으로": 1685,
      "게임": 1686,
      "재벌": 1687,
      "마법사": 1688,
      "하는": 1689,
      "레이": 1690,
      "살아": 1691,
      "스트": 1692,
      "스터": 1693,
      "환생": 1694,
      "최강": 1695,
      "자의": 1696,
      "용사": 1697,
      "이세계": 1698,
      "귀환": 1699,
      "습니다": 1700,
      "너무": 1701,
      "하다": 1702,
      "SS": 1703,
      "한다": 1704,
      "생활": 1705,
      "기사": 1706,
      "립스": 1707,
      "아포": 1708,
      "칼립스": 1709,
      "아포칼립스": 1710,
      "남자": 1711,
      "99": 1712,
      "주인": 1713,
      "되다": 1714,
      "나는": 1715,
      "작가": 1716,
      "천마": 1717,
      "결혼": 1718,
      "아카데미의": 1719,
      "라이": 1720,
      "마스터": 1721,
      "에게": 1722,
      "마왕": 1723,
      "00": 1724,
      "외전": 1725,
      "했다": 1726,
      "내가": 1727,
      "스타": 1728,
      "살아남": 1729,
      "혼자": 1730,
      "아이": 1731,
      "무림": 1732,
      "플레이": 1733,
      "자가": 1734,
      "소설": 1735,
      "S급": 1736,
      "돌아": 1737,
      "전생": 1738,
      "연애": 1739,
      "신의": 1740,
      "로맨": 1741,
      "입니다": 1742,
      "이야": 1743,
      "사이": 1744,
      "역대": 1745,
      "나니": 1746,
      "주인공": 1747,
      "플레이어": 1748,
      "던전": 1749,
      "레벨": 1750,
      "망나니": 1751,
      "가는": 1752,
      "역대급": 1753,
      "나의": 1754,
      "세요": 1755,
      "세상": 1756,
      "우리": 1757,
      "인생": 1758,
      "합니다": 1759,
      "황제": 1760,
      "능력": 1761,
      "영웅": 1762,
      "이다": 1763,
      "그대": 1764,
      "다시": 1765,
      "악마": 1766,
      "멸망": 1767,
      "조선": 1768,
      "배우": 1769,
      "이야기": 1770,
      "사는": 1771,
      "생존": 1772,
      "재능": 1773,
      "계약": 1774,
      "그녀": 1775,
      "메이": 1776,
      "삼국": 1777,
      "치킨": 1778,
      "아들": 1779,
      "싶다": 1780,
      "삼국지": 1781,
      "부터": 1782,
      "SSS급": 1783,
      "먼치킨": 1784,
      "절대": 1785,
      "없는": 1786,
      "까지": 1787,
      "제국": 1788,
      "무한": 1789,
      "드래": 1790,
      "마도": 1791,
      "신이": 1792,
      "이계": 1793,
      "방법": 1794,
      "강함": 1795,
      "드래곤": 1796,
      "사가": 1797,
      "사냥": 1798,
      "소드": 1799,
      "왔다": 1800,
      "축구": 1801,
      "프로": 1802,
      "전설": 1803,
      "살아남기": 1804,
      "복수": 1805,
      "레벨업": 1806,
      "게이": 1807,
      "자는": 1808,
      "시작": 1809,
      "들의": 1810,
      "번째": 1811,
      "빙의": 1812,
      "용병": 1813,
      "인물": 1814,
      "시간": 1815,
      "하고": 1816,
      "군주": 1817,
      "살아가는": 1818,
      "판타": 1819,
      "하게": 1820,
      "판타지": 1821,
      "막내": 1822,
      "악당": 1823,
      "천재가": 1824,
      "회귀한": 1825,
      "고인물": 1826,
      "여자": 1827,
      "빌런": 1828,
      "세계의": 1829,
      "천하": 1830,
      "연인": 1831,
      "전기": 1832,
      "만렙": 1833,
      "남편": 1834,
      "매니": 1835,
      "유혹": 1836,
      "네크": 1837,
      "바람": 1838,
      "대한": 1839,
      "라이프": 1840,
      "스트라": 1841,
      "엑스트라": 1842,
      "기로": 1843,
      "비밀": 1844,
      "악녀": 1845,
      "정령": 1846,
      "좀비": 1847,
      "차원": 1848,
      "로맨서": 1849,
      "네크로맨서": 1850,
      "공작": 1851,
      "미래": 1852,
      "괴물": 1853,
      "들이": 1854,
      "신부": 1855,
      "않는": 1856,
      "나만": 1857,
      "전쟁": 1858,
      "강해": 1859,
      "검사": 1860,
      "소환": 1861,
      "스의": 1862,
      "무적": 1863,
      "되어": 1864,
      "더니": 1865,
      "사냥꾼": 1866,
      "먹는": 1867,
      "시대": 1868,
      "나를": 1869,
      "하여": 1870,
      "검은": 1871,
      "아내": 1872,
      "살아남는": 1873,
      "악역": 1874,
      "아포칼립스의": 1875,
      "친구": 1876,
      "최강의": 1877,
      "돌아왔다": 1878,
      "달콤": 1879,
      "없다": 1880,
      "영주": 1881,
      "파이": 1882,
      "기억": 1883,
      "나이": 1884,
      "너를": 1885,
      "위험": 1886,
      "그리": 1887,
      "대마법사": 1888,
      "마녀": 1889,
      "공주": 1890,
      "렸다": 1891,
      "인간": 1892,
      "매니저": 1893,
      "100": 1894,
      "아니": 1895,
      "드의": 1896,
      "보니": 1897,
      "스킬": 1898,
      "있다": 1899,
      "지만": 1900,
      "사의": 1901,
      "심장": 1902,
      "들어": 1903,
      "미친": 1904,
      "9999": 1905,
      "가의": 1906,
      "사랑의": 1907,
      "소드마스터": 1908,
      "회귀자": 1909,
      "검술": 1910,
      "러브": 1911,
      "오늘": 1912,
      "아이돌": 1913,
      "각성": 1914,
      "었습니다": 1915,
      "인데": 1916,
      "살고": 1917,
      "어로": 1918,
      "는데": 1919,
      "소녀": 1920,
      "주인공이": 1921,
      "신화": 1922,
      "이혼": 1923,
      "님의": 1924,
      "당신": 1925,
      "폭군": 1926,
      "학교": 1927,
      "리는": 1928,
      "무공": 1929,
      "사람": 1930,
      "오브": 1931,
      "우주": 1932,
      "함께": 1933,
      "가다": 1934,
      "아빠": 1935,
      "멸망한": 1936,
      "위험한": 1937,
      "지옥": 1938,
      "키스": 1939,
      "가문": 1940,
      "나라": 1941,
      "현대": 1942,
      "히어로": 1943,
      "그림": 1944,
      "로드": 1945,
      "리스": 1946,
      "주세요": 1947,
      "운명": 1948,
      "제일": 1949,
      "돌아온": 1950,
      "ve": 1951,
      "살인": 1952,
      "월드": 1953,
      "로맨스": 1954,
      "게이머": 1955,
      "붉은": 1956,
      "산다": 1957,
      "술사": 1958,
      "엔딩": 1959,
      "초월": 1960,
      "했더니": 1961,
      "마지": 1962,
      "빨로": 1963,
      "수가": 1964,
      "이스": 1965,
      "해서": 1966,
      "버렸다": 1967,
      "시스": 1968,
      "역전": 1969,
      "장이": 1970,
      "겠습니다": 1971,
      "보스": 1972,
      "블랙": 1973,
      "이상": 1974,
      "회차": 1975,
      "작가의": 1976,
      "왕의": 1977,
      "토리": 1978,
      "나쁜": 1979,
      "몬스터": 1980,
      "강호": 1981,
      "너의": 1982,
      "마이": 1983,
      "구원": 1984,
      "속의": 1985,
      "생이": 1986,
      "잘함": 1987,
      "하지": 1988,
      "20": 1989,
      "사랑을": 1990,
      "마지막": 1991,
      "르는": 1992,
      "리아": 1993,
      "슈퍼": 1994,
      "왕자": 1995,
      "정복": 1996,
      "지구": 1997,
      "지는": 1998,
      "성좌": 1999,
      "숨김": 2000,
      "이라": 2001,
      "이유": 2002,
      "종말": 2003,
      "EX": 2004,
      "여행": 2005,
      "하라": 2006,
      "같은": 2007,
      "주의": 2008,
      "특별": 2009,
      "하기": 2010,
      "메이커": 2011,
      "늑대": 2012,
      "되는": 2013,
      "스캔": 2014,
      "어요": 2015,
      "인의": 2016,
      "헌터가": 2017,
      "양이": 2018,
      "처럼": 2019,
      "스캔들": 2020,
      "in": 2021,
      "님은": 2022,
      "보는": 2023,
      "전직": 2024,
      "노래": 2025,
      "무사": 2026,
      "시한": 2027,
      "가지": 2028,
      "바이": 2029,
      "았다": 2030,
      "인이": 2031,
      "달콤한": 2032,
      "거짓": 2033,
      "도시": 2034,
      "위한": 2035,
      "재벌가": 2036,
      "황제의": 2037,
      "능력자": 2038,
      "기적": 2039,
      "남자의": 2040,
      "대공": 2041,
      "되었습니다": 2042,
      "였다": 2043,
      "죽음": 2044,
      "힐러": 2045,
      "혼자만": 2046,
      "he": 2047,
      "니까": 2048,
      "립니다": 2049,
      "머리": 2050,
      "모험": 2051,
      "방송": 2052,
      "짐승": 2053,
      "최고": 2054,
      "황후": 2055,
      "환생한": 2056,
      "시스템": 2057,
      "님이": 2058,
      "사상": 2059,
      "세기": 2060,
      "쓰는": 2061,
      "위하여": 2062,
      "어서": 2063,
      "회귀자의": 2064,
      "대기": 2065,
      "마음": 2066,
      "일기": 2067,
      "파이어": 2068,
      "EX급": 2069,
      "보여": 2070,
      "찾아": 2071,
      "너에게": 2072,
      "대로": 2073,
      "보다": 2074,
      "비서": 2075,
      "지존": 2076,
      "집착": 2077,
      "게이트": 2078,
      "관계": 2079,
      "성장": 2080,
      "야구": 2081,
      "수의": 2082,
      "어쩌": 2083,
      "톱스타": 2084,
      "레이디": 2085,
      "검신": 2086,
      "고양이": 2087,
      "드립니다": 2088,
      "사로": 2089,
      "어느": 2090,
      "요리": 2091,
      "10": 2092,
      "대륙": 2093,
      "좋아": 2094,
      "처음": 2095,
      "포식": 2096,
      "다운": 2097,
      "그림자": 2098,
      "시한부": 2099,
      "12": 2100,
      "ove": 2101,
      "간다": 2102,
      "겠다": 2103,
      "공자": 2104,
      "만능": 2105,
      "완벽": 2106,
      "이번": 2107,
      "현실": 2108,
      "사랑이": 2109,
      "기로운": 2110,
      "장의": 2111,
      "그리고": 2112,
      "사기": 2113,
      "지배": 2114,
      "하늘": 2115,
      "천재의": 2116,
      "마법사의": 2117,
      "레이드": 2118,
      "21": 2119,
      "공략": 2120,
      "은밀": 2121,
      "음악": 2122,
      "이름": 2123,
      "정원": 2124,
      "않는다": 2125,
      "명가": 2126,
      "상태": 2127,
      "어먹": 2128,
      "전사": 2129,
      "제왕": 2130,
      "완벽한": 2131,
      "19": 2132,
      "까요": 2133,
      "단편": 2134,
      "대장": 2135,
      "데이": 2136,
      "리즈": 2137,
      "리턴": 2138,
      "사신": 2139,
      "사원": 2140,
      "우는": 2141,
      "일지": 2142,
      "흑막": 2143,
      "마도사": 2144,
      "거짓말": 2145,
      "어쩌다": 2146,
      "고백": 2147,
      "기를": 2148,
      "노예": 2149,
      "만나": 2150,
      "주가": 2151,
      "캐릭": 2152,
      "필요": 2153,
      "용사가": 2154,
      "생존기": 2155,
      "은밀한": 2156,
      "F급": 2157,
      "가짜": 2158,
      "다크": 2159,
      "당신의": 2160,
      "로운": 2161,
      "이는": 2162,
      "회귀하다": 2163,
      "나이트": 2164,
      "소리": 2165,
      "있는": 2166,
      "적인": 2167,
      "아카데미에서": 2168,
      "er": 2169,
      "귀신": 2170,
      "버린": 2171,
      "선택": 2172,
      "슬기로운": 2173,
      "여름": 2174,
      "태양": 2175,
      "태어": 2176,
      "했습니다": 2177,
      "인생역전": 2178,
      "가문의": 2179,
      "2회차": 2180,
      "공녀": 2181,
      "는다": 2182,
      "으면": 2183,
      "상태창": 2184,
      "수호": 2185,
      "알고": 2186,
      "영애": 2187,
      "오빠": 2188,
      "싶어": 2189,
      "연대기": 2190,
      "재벌집": 2191,
      "꿈꾸": 2192,
      "밤의": 2193,
      "세가": 2194,
      "수상": 2195,
      "위의": 2196,
      "이지": 2197,
      "행복": 2198,
      "가면": 2199,
      "신입": 2200,
      "마왕이": 2201,
      "캐릭터": 2202,
      "국의": 2203,
      "나무": 2204,
      "내게": 2205,
      "른다": 2206,
      "리스트": 2207,
      "사라": 2208,
      "소년": 2209,
      "아가": 2210,
      "아름": 2211,
      "여왕": 2212,
      "장님": 2213,
      "제로": 2214,
      "타임": 2215,
      "하나": 2216,
      "마법사가": 2217,
      "제국의": 2218,
      "시작하는": 2219,
      "길들이": 2220,
      "로그": 2221,
      "백작가": 2222,
      "성공": 2223,
      "죽여": 2224,
      "펑크": 2225,
      "사랑은": 2226,
      "헌터의": 2227,
      "스트라이": 2228,
      "그녀의": 2229,
      "감독": 2230,
      "드는": 2231,
      "무당": 2232,
      "생은": 2233,
      "연예": 2234,
      "정의": 2235,
      "최종": 2236,
      "투수": 2237,
      "막내아들": 2238,
      "천하제일": 2239,
      "그라": 2240,
      "떨어": 2241,
      "마신": 2242,
      "만에": 2243,
      "뱀파이어": 2244,
      "암살": 2245,
      "저승": 2246,
      "용사는": 2247,
      "프로게이머": 2248,
      "ss": 2249,
      "기갑": 2250,
      "바다": 2251,
      "에는": 2252,
      "운드": 2253,
      "자로": 2254,
      "천사": 2255,
      "황태": 2256,
      "게임의": 2257,
      "용사의": 2258,
      "PC": 2259,
      "or": 2260,
      "그룹": 2261,
      "닥터": 2262,
      "서울": 2263,
      "시리즈": 2264,
      "안에": 2265,
      "장미": 2266,
      "탑스타": 2267,
      "학원": 2268,
      "해피": 2269,
      "귀환자": 2270,
      "NPC": 2271,
      "공무": 2272,
      "그의": 2273,
      "꾼다": 2274,
      "되기": 2275,
      "마검": 2276,
      "성기사": 2277,
      "속으로": 2278,
      "여우": 2279,
      "유일": 2280,
      "치는": 2281,
      "평범": 2282,
      "하면": 2283,
      "화산": 2284,
      "2부": 2285,
      "강철": 2286,
      "겨울": 2287,
      "랜드": 2288,
      "받은": 2289,
      "부부": 2290,
      "서클": 2291,
      "아찔": 2292,
      "전드": 2293,
      "테이": 2294,
      "하루": 2295,
      "했는데": 2296,
      "오늘도": 2297,
      "걸그룹": 2298,
      "그래": 2299,
      "나비": 2300,
      "드라": 2301,
      "망겜": 2302,
      "모든": 2303,
      "사건": 2304,
      "사내": 2305,
      "상점": 2306,
      "성의": 2307,
      "신다": 2308,
      "싶은": 2309,
      "연금": 2310,
      "조연": 2311,
      "주는": 2312,
      "클래": 2313,
      "피아": 2314,
      "필드": 2315,
      "황녀": 2316,
      "공작가": 2317,
      "랭커": 2318,
      "방랑": 2319,
      "불꽃": 2320,
      "사제": 2321,
      "선생": 2322,
      "연기": 2323,
      "위대한": 2324,
      "키운": 2325,
      "특성": 2326,
      "필드의": 2327,
      "후의": 2328,
      "세계에서": 2329,
      "세상을": 2330,
      "ovel": 2331,
      "The": 2332,
      "성녀": 2333,
      "수저": 2334,
      "우스": 2335,
      "죽지": 2336,
      "튜토리": 2337,
      "이세계에서": 2338,
      "세상의": 2339,
      "대한민": 2340,
      "포식자": 2341,
      "아름다운": 2342,
      "튜토리얼": 2343,
      "고려": 2344,
      "영원": 2345,
      "왕이": 2346,
      "은퇴": 2347,
      "지다": 2348,
      "탄생": 2349,
      "황금": 2350,
      "스트라이커": 2351,
      "Novel": 2352,
      "과의": 2353,
      "다른": 2354,
      "된다": 2355,
      "사자": 2356,
      "없이": 2357,
      "킬러": 2358,
      "파트": 2359,
      "재벌이": 2360,
      "마왕의": 2361,
      "배우님": 2362,
      "강림": 2363,
      "레전드": 2364,
      "몰락": 2365,
      "무신": 2366,
      "보고": 2367,
      "이드": 2368,
      "조건": 2369,
      "크리스": 2370,
      "탐정": 2371,
      "해결": 2372,
      "홀로": 2373,
      "헌터는": 2374,
      "최고의": 2375,
      "21세기": 2376,
      "어먹을": 2377,
      "3세": 2378,
      "ar": 2379,
      "개의": 2380,
      "고수": 2381,
      "귀족": 2382,
      "네가": 2383,
      "도련": 2384,
      "동거": 2385,
      "새벽": 2386,
      "속에": 2387,
      "아라": 2388,
      "영혼": 2389,
      "인류": 2390,
      "제자": 2391,
      "펙트": 2392,
      "하세요": 2393,
      "아카데미에": 2394,
      "전설의": 2395,
      "아빠가": 2396,
      "아가씨": 2397,
      "다이": 2398,
      "들다": 2399,
      "렐라": 2400,
      "로스": 2401,
      "마교": 2402,
      "만의": 2403,
      "악의": 2404,
      "안의": 2405,
      "종족": 2406,
      "진다": 2407,
      "미래를": 2408,
      "대한민국": 2409,
      "기다": 2410,
      "대표": 2411,
      "데렐라": 2412,
      "라고": 2413,
      "마나": 2414,
      "망한": 2415,
      "미치": 2416,
      "신데렐라": 2417,
      "아기": 2418,
      "안녕": 2419,
      "얼굴": 2420,
      "잡는": 2421,
      "졌다": 2422,
      "퍼펙트": 2423,
      "기사가": 2424,
      "망나니가": 2425,
      "악마의": 2426,
      "수상한": 2427,
      "뉴비": 2428,
      "무협": 2429,
      "블러": 2430,
      "시다": 2431,
      "에이스": 2432,
      "전남편": 2433,
      "젝트": 2434,
      "죽이": 2435,
      "진짜": 2436,
      "퇴마": 2437,
      "패왕": 2438,
      "푸른": 2439,
      "힘을": 2440,
      "프로젝트": 2441,
      "거운": 2442,
      "게요": 2443,
      "대전": 2444,
      "데스": 2445,
      "명의": 2446,
      "법칙": 2447,
      "베이": 2448,
      "부활": 2449,
      "빌어먹을": 2450,
      "순간": 2451,
      "신을": 2452,
      "욕망": 2453,
      "웠다": 2454,
      "위해": 2455,
      "인형": 2456,
      "주식": 2457,
      "탈출": 2458,
      "프리": 2459,
      "흑마법사": 2460,
      "흡수": 2461,
      "회귀했다": 2462,
      "회귀해서": 2463,
      "사랑하는": 2464,
      "999": 2465,
      "특별한": 2466,
      "클래스": 2467,
      "크리스마": 2468,
      "가장": 2469,
      "로또": 2470,
      "리의": 2471,
      "무기": 2472,
      "백작": 2473,
      "불멸": 2474,
      "아닌": 2475,
      "이의": 2476,
      "첫사랑": 2477,
      "탑을": 2478,
      "귀환한": 2479,
      "악당이": 2480,
      "기적의": 2481,
      "공무원": 2482,
      "st": 2483,
      "꿈꾼다": 2484,
      "달빛": 2485,
      "레기": 2486,
      "먼트": 2487,
      "버스": 2488,
      "브레이": 2489,
      "블린": 2490,
      "사위": 2491,
      "사정": 2492,
      "식당": 2493,
      "아르": 2494,
      "오다": 2495,
      "용의": 2496,
      "자들": 2497,
      "집에": 2498,
      "치트": 2499,
      "파티": 2500,
      "향기": 2501,
      "환상": 2502,
      "사이버": 2503,
      "그대를": 2504,
      "아찔한": 2505,
      "11": 2506,
      "검을": 2507,
      "났다": 2508,
      "독식": 2509,
      "두근": 2510,
      "래요": 2511,
      "먹고": 2512,
      "사용": 2513,
      "스탯": 2514,
      "스페": 2515,
      "시점": 2516,
      "아래": 2517,
      "아저": 2518,
      "이었다": 2519,
      "재앙": 2520,
      "저주": 2521,
      "죽어": 2522,
      "진실": 2523,
      "카드": 2524,
      "퀘스트": 2525,
      "스트리": 2526,
      "빌런이": 2527,
      "공작님": 2528,
      "관리": 2529,
      "동화": 2530,
      "리치": 2531,
      "만들": 2532,
      "변호": 2533,
      "불사": 2534,
      "속에서": 2535,
      "와의": 2536,
      "월의": 2537,
      "이중": 2538,
      "전투": 2539,
      "정벌": 2540,
      "천년": 2541,
      "클럽": 2542,
      "폭풍": 2543,
      "풍운": 2544,
      "하룻": 2545,
      "하트": 2546,
      "해요": 2547,
      "이세계의": 2548,
      "입니다만": 2549,
      "황제가": 2550,
      "모험가": 2551,
      "그날": 2552,
      "눈에": 2553,
      "레스": 2554,
      "만장": 2555,
      "벼락": 2556,
      "상사": 2557,
      "셰프": 2558,
      "에이": 2559,
      "연하": 2560,
      "영화": 2561,
      "운드의": 2562,
      "작전": 2563,
      "하얀": 2564,
      "흡혈": 2565,
      "고인물이": 2566,
      "바람의": 2567,
      "유일한": 2568,
      "아저씨": 2569,
      "1부": 2570,
      "가고": 2571,
      "대마도사": 2572,
      "떠보니": 2573,
      "리셋": 2574,
      "리어": 2575,
      "바라": 2576,
      "상인": 2577,
      "오크": 2578,
      "재다": 2579,
      "지금": 2580,
      "탑의": 2581,
      "피어": 2582,
      "하이": 2583,
      "학사": 2584,
      "후회": 2585,
      "히든": 2586,
      "회귀로": 2587,
      "복수를": 2588,
      "악녀는": 2589,
      "정령사": 2590,
      "갑니다": 2591,
      "검성": 2592,
      "군단": 2593,
      "나요": 2594,
      "노블": 2595,
      "니스": 2596,
      "다정": 2597,
      "도둑": 2598,
      "동생이": 2599,
      "미스터": 2600,
      "사나이": 2601,
      "시크": 2602,
      "않아": 2603,
      "엘프": 2604,
      "여인": 2605,
      "왕국": 2606,
      "작은": 2607,
      "전지": 2608,
      "진화": 2609,
      "카르": 2610,
      "통령": 2611,
      "행운": 2612,
      "우리는": 2613,
      "영웅이": 2614,
      "그대에게": 2615,
      "99999999": 2616,
      "지배자": 2617,
      "대장장이": 2618,
      "al": 2619,
      "an": 2620,
      "on": 2621,
      "고블린": 2622,
      "남궁": 2623,
      "다재다": 2624,
      "되고": 2625,
      "들려": 2626,
      "라인": 2627,
      "리얼": 2628,
      "목소리": 2629,
      "백서": 2630,
      "백수": 2631,
      "삼류": 2632,
      "선물": 2633,
      "소림": 2634,
      "슬레이": 2635,
      "아의": 2636,
      "어린": 2637,
      "엄마": 2638,
      "우아": 2639,
      "이제": 2640,
      "자비": 2641,
      "학생": 2642,
      "시간을": 2643,
      "꿈꾸는": 2644,
      "스트리머": 2645,
      "다재다능": 2646,
      "me": 2647,
      "그만": 2648,
      "남주": 2649,
      "눈물": 2650,
      "달의": 2651,
      "대가": 2652,
      "둥이": 2653,
      "딸이": 2654,
      "라도": 2655,
      "마검사": 2656,
      "만든": 2657,
      "무인": 2658,
      "밤에": 2659,
      "불순": 2660,
      "어떤": 2661,
      "오세요": 2662,
      "이웃": 2663,
      "인연": 2664,
      "죽은": 2665,
      "코인": 2666,
      "폐하": 2667,
      "프린": 2668,
      "회귀했더니": 2669,
      "악마가": 2670,
      "폭군의": 2671,
      "만나다": 2672,
      "격투": 2673,
      "당한": 2674,
      "도록": 2675,
      "세이": 2676,
      "소원": 2677,
      "순정": 2678,
      "신들의": 2679,
      "야만": 2680,
      "없어": 2681,
      "왔습니다": 2682,
      "웨딩": 2683,
      "잡이": 2684,
      "제가": 2685,
      "지의": 2686,
      "트롤": 2687,
      "힐링": 2688,
      "귀환자의": 2689,
      "나만의": 2690,
      "되어버렸다": 2691,
      "검은머리": 2692,
      "파트너": 2693,
      "크리스마스": 2694,
      "슬레이어": 2695,
      "0년": 2696,
      "계승": 2697,
      "깨어": 2698,
      "낙원": 2699,
      "너는": 2700,
      "대리": 2701,
      "됐다": 2702,
      "라의": 2703,
      "라임": 2704,
      "마력": 2705,
      "만화": 2706,
      "말고": 2707,
      "무쌍": 2708,
      "별을": 2709,
      "사막": 2710,
      "아는": 2711,
      "애인": 2712,
      "역사": 2713,
      "중독": 2714,
      "청혼": 2715,
      "취향": 2716,
      "파괴": 2717,
      "회사": 2718,
      "천재는": 2719,
      "회귀자는": 2720,
      "사랑할": 2721,
      "메이지": 2722,
      "각성자": 2723,
      "시크릿": 2724,
      "불순한": 2725,
      "감정": 2726,
      "거나": 2727,
      "깨비": 2728,
      "도깨비": 2729,
      "드림": 2730,
      "레드": 2731,
      "레인": 2732,
      "로즈": 2733,
      "룡의": 2734,
      "마계": 2735,
      "마세요": 2736,
      "못된": 2737,
      "미스": 2738,
      "배틀": 2739,
      "불가": 2740,
      "사령": 2741,
      "사형": 2742,
      "소울": 2743,
      "수로": 2744,
      "수록": 2745,
      "스토": 2746,
      "시드": 2747,
      "알바": 2748,
      "어둠": 2749,
      "어리": 2750,
      "연가": 2751,
      "쟁이": 2752,
      "주웠다": 2753,
      "치다": 2754,
      "키우는": 2755,
      "패스": 2756,
      "한번": 2757,
      "해야": 2758,
      "후궁": 2759,
      "용사를": 2760,
      "천마님": 2761,
      "마왕은": 2762,
      "길들이기": 2763,
      "평범한": 2764,
      "해결사": 2765,
      "개발": 2766,
      "공의": 2767,
      "공작가의": 2768,
      "과거": 2769,
      "귀여": 2770,
      "끝에": 2771,
      "노벨": 2772,
      "마의": 2773,
      "블루": 2774,
      "사회": 2775,
      "스토리": 2776,
      "아무": 2777,
      "어라": 2778,
      "요괴": 2779,
      "이면": 2780,
      "읽는": 2781,
      "줄게": 2782,
      "착한": 2783,
      "철혈": 2784,
      "하니": 2785,
      "학자": 2786,
      "혈통": 2787,
      "세계최강": 2788,
      "마법을": 2789,
      "프로듀": 2790,
      "빙의했다": 2791,
      "강해져": 2792,
      "이상하다": 2793,
      "구원자": 2794,
      "연예계": 2795,
      "전지적": 2796,
      "18": 2797,
      "Se": 2798,
      "검제": 2799,
      "것이": 2800,
      "남은": 2801,
      "당신이": 2802,
      "대통령": 2803,
      "뜨거운": 2804,
      "라벨": 2805,
      "약속": 2806,
      "어버린": 2807,
      "자리": 2808,
      "질풍": 2809,
      "트로": 2810,
      "트리": 2811,
      "폐급": 2812,
      "혁명": 2813,
      "회귀자가": 2814,
      "사랑에": 2815,
      "용사님": 2816,
      "천마는": 2817,
      "조선의": 2818,
      "무한성장": 2819,
      "이계에서": 2820,
      "빌런의": 2821,
      "이상한": 2822,
      "30": 2823,
      "가드": 2824,
      "가진": 2825,
      "기는": 2826,
      "등급": 2827,
      "라스트": 2828,
      "르다": 2829,
      "모르는": 2830,
      "미궁": 2831,
      "발칙": 2832,
      "신선": 2833,
      "아요": 2834,
      "얼음": 2835,
      "에겐": 2836,
      "외계": 2837,
      "이방": 2838,
      "일곱": 2839,
      "일상": 2840,
      "지독": 2841,
      "지션": 2842,
      "지먼트": 2843,
      "추억": 2844,
      "카페": 2845,
      "타이": 2846,
      "한국": 2847,
      "세계를": 2848,
      "환생하다": 2849,
      "환생했다": 2850,
      "그녀를": 2851,
      "악당의": 2852,
      "남편이": 2853,
      "엑스트라가": 2854,
      "공작의": 2855,
      "죽음을": 2856,
      "마음을": 2857,
      "BJ": 2858,
      "가시": 2859,
      "개론": 2860,
      "경험": 2861,
      "길들": 2862,
      "꽃이": 2863,
      "꿈을": 2864,
      "대신": 2865,
      "도사": 2866,
      "리면": 2867,
      "마인": 2868,
      "만남": 2869,
      "바보": 2870,
      "보이": 2871,
      "뽑기": 2872,
      "선수": 2873,
      "수집": 2874,
      "신과": 2875,
      "아내가": 2876,
      "엘리": 2877,
      "있습니다": 2878,
      "지켜": 2879,
      "캐리": 2880,
      "키워": 2881,
      "품은": 2882,
      "하겠습니다": 2883,
      "후예": 2884,
      "사랑한다": 2885,
      "천마의": 2886,
      "결혼의": 2887,
      "강해지는": 2888,
      "살고싶다": 2889,
      "지옥에서": 2890,
      "변호사": 2891,
      "15": 2892,
      "ed": 2893,
      "가족": 2894,
      "기생": 2895,
      "기연": 2896,
      "데드": 2897,
      "라는": 2898,
      "리지": 2899,
      "반려": 2900,
      "사도": 2901,
      "사무": 2902,
      "서자의": 2903,
      "서바이": 2904,
      "소유": 2905,
      "약혼": 2906,
      "육성": 2907,
      "일의": 2908,
      "주먹": 2909,
      "집사": 2910,
      "초인": 2911,
      "축복": 2912,
      "특급": 2913,
      "사랑해": 2914,
      "기사의": 2915,
      "돌아오다": 2916,
      "빙의함": 2917,
      "매니지먼트": 2918,
      "악역이": 2919,
      "학교의": 2920,
      "운명의": 2921,
      "초월자": 2922,
      "슈퍼스타": 2923,
      "블러드": 2924,
      "사이버펑크": 2925,
      "이중생활": 2926,
      "하룻밤": 2927,
      "이방인": 2928,
      "AI": 2929,
      "가기": 2930,
      "가을": 2931,
      "강화": 2932,
      "납치": 2933,
      "놈이": 2934,
      "누구": 2935,
      "단의": 2936,
      "동생": 2937,
      "디어": 2938,
      "레시": 2939,
      "마귀": 2940,
      "마술": 2941,
      "마제": 2942,
      "만들어": 2943,
      "반짝": 2944,
      "부인": 2945,
      "소꿉": 2946,
      "아버": 2947,
      "유물": 2948,
      "직업": 2949,
      "천만": 2950,
      "초능력": 2951,
      "출근": 2952,
      "키우": 2953,
      "파일": 2954,
      "하우스": 2955,
      "혈마": 2956,
      "로맨틱": 2957,
      "주인공을": 2958,
      "주인공의": 2959,
      "절대자": 2960,
      "악녀의": 2961,
      "영주님": 2962,
      "흡혈귀": 2963,
      "발칙한": 2964,
      "13": 2965,
      "re": 2966,
      "가상": 2967,
      "계절": 2968,
      "골드": 2969,
      "기업": 2970,
      "남이": 2971,
      "녀의": 2972,
      "대박": 2973,
      "도의": 2974,
      "린다": 2975,
      "매직": 2976,
      "보자": 2977,
      "부탁": 2978,
      "빠진": 2979,
      "상의": 2980,
      "생겼": 2981,
      "신마": 2982,
      "싫다": 2983,
      "아니다": 2984,
      "알았": 2985,
      "오리": 2986,
      "올라": 2987,
      "이런": 2988,
      "인트": 2989,
      "제작": 2990,
      "직장": 2991,
      "창조": 2992,
      "타는": 2993,
      "해골": 2994,
      "히로": 2995,
      "이세계로": 2996,
      "이세계에": 2997,
      "천마신": 2998,
      "재능을": 2999,
      "그녀는": 3000,
      "아들이": 3001,
      "절대자의": 3002,
      "마녀의": 3003,
      "사로잡": 3004,
      "해피엔딩": 3005,
      "강철의": 3006,
      "브레이커": 3007,
      "우아한": 3008,
      "le": 3009,
      "계속": 3010,
      "고의": 3011,
      "관의": 3012,
      "교수": 3013,
      "교육": 3014,
      "구름": 3015,
      "길드": 3016,
      "남의": 3017,
      "능의": 3018,
      "들을": 3019,
      "디언": 3020,
      "라면": 3021,
      "러운": 3022,
      "리다": 3023,
      "리안": 3024,
      "마을": 3025,
      "막장": 3026,
      "맞은": 3027,
      "명가의": 3028,
      "받는": 3029,
      "살다": 3030,
      "살겠다": 3031,
      "새끼": 3032,
      "신혼": 3033,
      "아웃": 3034,
      "않은": 3035,
      "오르는": 3036,
      "이별": 3037,
      "인다": 3038,
      "전에": 3039,
      "죽었다": 3040,
      "지상": 3041,
      "찾기": 3042,
      "치가": 3043,
      "후계": 3044,
      "주인이": 3045,
      "우리가": 3046,
      "드래곤의": 3047,
      "강해진다": 3048,
      "기억을": 3049,
      "대마법사의": 3050,
      "심장을": 3051,
      "영애의": 3052,
      "사라진": 3053,
      "드라마": 3054,
      "연금술사": 3055,
      "목소리가": 3056,
      "소꿉친구": 3057,
      "1등": 3058,
      "at": 3059,
      "갑질": 3060,
      "거울": 3061,
      "공포": 3062,
      "괜찮": 3063,
      "군림": 3064,
      "까마귀": 3065,
      "눈을": 3066,
      "도망": 3067,
      "도적": 3068,
      "뜨겁": 3069,
      "랜덤": 3070,
      "마트": 3071,
      "마운드의": 3072,
      "만드는": 3073,
      "망캐": 3074,
      "매혹": 3075,
      "먹음": 3076,
      "모두": 3077,
      "무명": 3078,
      "반지": 3079,
      "받고": 3080,
      "백작가의": 3081,
      "불량": 3082,
      "빼고": 3083,
      "살자": 3084,
      "상속": 3085,
      "수라": 3086,
      "스카": 3087,
      "슬라임": 3088,
      "습니까": 3089,
      "야수": 3090,
      "양아": 3091,
      "예언": 3092,
      "왕비": 3093,
      "원수": 3094,
      "자살": 3095,
      "조각": 3096,
      "지컬": 3097,
      "최약": 3098,
      "키다": 3099,
      "펜스": 3100,
      "피는": 3101,
      "할까요": 3102,
      "회사원": 3103,
      "후작가": 3104,
      "흙수저": 3105,
      "스트로": 3106,
      "0000": 3107,
      "아이템": 3108,
      "전생자": 3109,
      "던전에서": 3110,
      "세상이": 3111,
      "배우의": 3112,
      "소환사": 3113,
      "당신을": 3114,
      "ing": 3115,
      "최종보스": 3116,
      "불멸의": 3117,
      "프로듀서": 3118,
      "서바이벌": 3119,
      "레시피": 3120,
      "강하다": 3121,
      "검귀": 3122,
      "그를": 3123,
      "그린": 3124,
      "그랜드": 3125,
      "기계": 3126,
      "깡패": 3127,
      "나에게": 3128,
      "나혼자": 3129,
      "너와": 3130,
      "데요": 3131,
      "도르": 3132,
      "때려": 3133,
      "렇게": 3134,
      "마운드": 3135,
      "물이": 3136,
      "버렸": 3137,
      "법사": 3138,
      "병기": 3139,
      "뽑기로": 3140,
      "사생활": 3141,
      "세스": 3142,
      "소나": 3143,
      "시오": 3144,
      "쓰레기": 3145,
      "아몬": 3146,
      "연습": 3147,
      "원한다": 3148,
      "유리": 3149,
      "입술": 3150,
      "작곡": 3151,
      "장난": 3152,
      "전략": 3153,
      "좋은": 3154,
      "죽고": 3155,
      "중입니다": 3156,
      "찬란": 3157,
      "크로": 3158,
      "크리": 3159,
      "탱커": 3160,
      "편의": 3161,
      "히다": 3162,
      "게임으로": 3163,
      "귀환하다": 3164,
      "귀환했다": 3165,
      "생활백서": 3166,
      "천마가": 3167,
      "드래곤이": 3168,
      "아내의": 3169,
      "검술천재": 3170,
      "캐릭터가": 3171,
      "그라운드": 3172,
      "대표님": 3173,
      "정벌기": 3174,
      "시드노벨": 3175,
      "Seed": 3176,
      "14": 3177,
      "1위": 3178,
      "ou": 3179,
      "가요": 3180,
      "거래": 3181,
      "경영": 3182,
      "고구": 3183,
      "그들": 3184,
      "기담": 3185,
      "꽃을": 3186,
      "남주가": 3187,
      "내리는": 3188,
      "녀석": 3189,
      "다섯": 3190,
      "도서": 3191,
      "돈의": 3192,
      "만년": 3193,
      "만한": 3194,
      "매일": 3195,
      "바꾸": 3196,
      "배달": 3197,
      "버려": 3198,
      "번의": 3199,
      "변신": 3200,
      "비상": 3201,
      "빼앗": 3202,
      "스크": 3203,
      "영지": 3204,
      "요원": 3205,
      "유령": 3206,
      "이크": 3207,
      "있어": 3208,
      "자기": 3209,
      "잡아": 3210,
      "재림": 3211,
      "전한": 3212,
      "정석": 3213,
      "커피": 3214,
      "테스트": 3215,
      "포즈": 3216,
      "하러": 3217,
      "한의": 3218,
      "천재로": 3219,
      "재벌의": 3220,
      "마법사는": 3221,
      "최강자": 3222,
      "아이들": 3223,
      "사이코": 3224,
      "축구천재": 3225,
      "전설이": 3226,
      "네크로맨서가": 3227,
      "강해짐": 3228,
      "악역의": 3229,
      "친구의": 3230,
      "1000": 3231,
      "신화급": 3232,
      "함께하는": 3233,
      "사기꾼": 3234,
      "태어난": 3235,
      "프린세스": 3236,
      "생겼다": 3237,
      "가슴": 3238,
      "게인": 3239,
      "경계": 3240,
      "골든": 3241,
      "관이": 3242,
      "교주": 3243,
      "구석": 3244,
      "구애": 3245,
      "금지": 3246,
      "나도": 3247,
      "낯선": 3248,
      "너머": 3249,
      "누나": 3250,
      "동물": 3251,
      "려라": 3252,
      "로열": 3253,
      "많다": 3254,
      "모음": 3255,
      "미드": 3256,
      "미쳐": 3257,
      "방의": 3258,
      "부의": 3259,
      "수사": 3260,
      "스러운": 3261,
      "신비": 3262,
      "아침": 3263,
      "암흑": 3264,
      "오버": 3265,
      "오스": 3266,
      "우연": 3267,
      "인지": 3268,
      "입학": 3269,
      "잔인": 3270,
      "잘한다": 3271,
      "적응": 3272,
      "정점": 3273,
      "천의": 3274,
      "초능력자": 3275,
      "최초": 3276,
      "코드": 3277,
      "투수가": 3278,
      "팔이": 3279,
      "포인트": 3280,
      "품격": 3281,
      "품다": 3282,
      "해도": 3283,
      "해적": 3284,
      "형사": 3285,
      "회귀함": 3286,
      "게임에서": 3287,
      "소설의": 3288,
      "세상에서": 3289,
      "능력을": 3290,
      "악마는": 3291,
      "악당은": 3292,
      "나만이": 3293,
      "사냥꾼이": 3294,
      "공주님": 3295,
      "인간이": 3296,
      "오늘부터": 3297,
      "왕자님": 3298,
      "알고보니": 3299,
      "신입사원": 3300,
      "암살자": 3301,
      "베이비": 3302,
      "만장자": 3303,
      "2권": 3304,
      "PD": 3305,
      "가가": 3306,
      "가디언": 3307,
      "거절": 3308,
      "검마": 3309,
      "것은": 3310,
      "경찰": 3311,
      "계획": 3312,
      "괴수": 3313,
      "깽판": 3314,
      "나노": 3315,
      "남녀": 3316,
      "낭인": 3317,
      "디펜스": 3318,
      "로마": 3319,
      "머니": 3320,
      "무정": 3321,
      "문제": 3322,
      "반란": 3323,
      "빠는": 3324,
      "서생": 3325,
      "신병": 3326,
      "실험": 3327,
      "싸이": 3328,
      "않았다": 3329,
      "언더": 3330,
      "여자의": 3331,
      "열정": 3332,
      "영업": 3333,
      "예술": 3334,
      "오해": 3335,
      "우가": 3336,
      "이단": 3337,
      "이사": 3338,
      "재회": 3339,
      "저리": 3340,
      "전사가": 3341,
      "절한": 3342,
      "좋다": 3343,
      "짝사랑": 3344,
      "첫날": 3345,
      "트의": 3346,
      "프러": 3347,
      "한테": 3348,
      "황의": 3349,
      "천재마법사": 3350,
      "헌터생활": 3351,
      "기사로": 3352,
      "무림에": 3353,
      "악마를": 3354,
      "조선을": 3355,
      "메이드": 3356,
      "먼치킨의": 3357,
      "복수의": 3358,
      "천하를": 3359,
      "달콤하게": 3360,
      "태양의": 3361,
      "로그인": 3362,
      "사막의": 3363,
      "귀여운": 3364,
      "가르": 3365,
      "가정": 3366,
      "감평": 3367,
      "거리": 3368,
      "거부": 3369,
      "검의": 3370,
      "고스트": 3371,
      "귀한": 3372,
      "금수저": 3373,
      "기간": 3374,
      "내겐": 3375,
      "내일": 3376,
      "달이": 3377,
      "독자": 3378,
      "돈을": 3379,
      "랑이": 3380,
      "마라": 3381,
      "묘한": 3382,
      "무지": 3383,
      "방구석": 3384,
      "별이": 3385,
      "보상": 3386,
      "부자": 3387,
      "빛나는": 3388,
      "사실": 3389,
      "생의": 3390,
      "셨다": 3391,
      "스티": 3392,
      "시체": 3393,
      "싫어": 3394,
      "싸움": 3395,
      "아리": 3396,
      "아직": 3397,
      "애완": 3398,
      "약혼자": 3399,
      "어게인": 3400,
      "언데드": 3401,
      "오는": 3402,
      "오른다": 3403,
      "온다": 3404,
      "올마스터": 3405,
      "유희": 3406,
      "이동": 3407,
      "잃어버린": 3408,
      "전하": 3409,
      "제의": 3410,
      "죽이는": 3411,
      "중원": 3412,
      "초대": 3413,
      "토끼": 3414,
      "폭발": 3415,
      "학개론": 3416,
      "할게요": 3417,
      "행성": 3418,
      "현질": 3419,
      "화려": 3420,
      "희망": 3421,
      "사랑한": 3422,
      "재벌되다": 3423,
      "무림맹": 3424,
      "악마와": 3425,
      "메이트": 3426,
      "이계로": 3427,
      "악녀가": 3428,
      "지구를": 3429,
      "늑대의": 3430,
      "도시의": 3431,
      "죽음의": 3432,
      "수호자": 3433,
      "저승사자": 3434,
      "연금술": 3435,
      "다이아몬": 3436,
      "뜨겁게": 3437,
      "도서관": 3438,
      "3권": 3439,
      "9서클": 3440,
      "같이": 3441,
      "건물": 3442,
      "공간": 3443,
      "그냥": 3444,
      "금강": 3445,
      "기가": 3446,
      "기록": 3447,
      "깊은": 3448,
      "나와": 3449,
      "날개": 3450,
      "네임": 3451,
      "누가": 3452,
      "니아": 3453,
      "다가": 3454,
      "달라": 3455,
      "대하여": 3456,
      "독재": 3457,
      "독점": 3458,
      "들린": 3459,
      "딸은": 3460,
      "라서": 3461,
      "렵다": 3462,
      "마족": 3463,
      "만이": 3464,
      "멈추": 3465,
      "메리": 3466,
      "못한": 3467,
      "뮤지션": 3468,
      "미소": 3469,
      "밖의": 3470,
      "버림": 3471,
      "벌레": 3472,
      "부로": 3473,
      "빛의": 3474,
      "사진": 3475,
      "서자": 3476,
      "선배": 3477,
      "스켈": 3478,
      "스마트": 3479,
      "시록": 3480,
      "시아": 3481,
      "시티": 3482,
      "신검": 3483,
      "어도": 3484,
      "어디": 3485,
      "언제": 3486,
      "얻다": 3487,
      "었던": 3488,
      "여포": 3489,
      "옆집": 3490,
      "오직": 3491,
      "온라인": 3492,
      "위에": 3493,
      "유산": 3494,
      "육아": 3495,
      "인공": 3496,
      "인을": 3497,
      "있을": 3498,
      "자꾸": 3499,
      "적으로": 3500,
      "전장의": 3501,
      "제자가": 3502,
      "중세": 3503,
      "지능": 3504,
      "지키": 3505,
      "청춘": 3506,
      "투명": 3507,
      "페러": 3508,
      "편집": 3509,
      "플라": 3510,
      "하렘": 3511,
      "항해": 3512,
      "현자": 3513,
      "세계에": 3514,
      "세계정복": 3515,
      "게임속": 3516,
      "게임에": 3517,
      "환생했더니": 3518,
      "작가님": 3519,
      "결혼을": 3520,
      "영웅은": 3521,
      "영웅의": 3522,
      "시간의": 3523,
      "유혹의": 3524,
      "영주가": 3525,
      "매니저가": 3526,
      "심장이": 3527,
      "요리사": 3528,
      "단편집": 3529,
      "필요해": 3530,
      "길들이는": 3531,
      "황태자의": 3532,
      "몰락한": 3533,
      "두근두근": 3534,
      "스페셜": 3535,
      "재앙급": 3536,
      "남궁세가": 3537,
      "괜찮아": 3538,
      "17": 3539,
      "77": 3540,
      "FF": 3541,
      "the": 3542,
      "가출": 3543,
      "강남": 3544,
      "강한": 3545,
      "경이": 3546,
      "나잇": 3547,
      "낙제": 3548,
      "내린": 3549,
      "넘어": 3550,
      "노력": 3551,
      "레톤": 3552,
      "롱도르": 3553,
      "룡이": 3554,
      "머신": 3555,
      "못하는": 3556,
      "무제": 3557,
      "문명": 3558,
      "물고": 3559,
      "밖에": 3560,
      "발롱도르": 3561,
      "배신": 3562,
      "범죄": 3563,
      "베타": 3564,
      "살수": 3565,
      "생각": 3566,
      "세자": 3567,
      "소서": 3568,
      "수련": 3569,
      "순결": 3570,
      "스런": 3571,
      "스파이": 3572,
      "신은": 3573,
      "아티": 3574,
      "았습니다": 3575,
      "엠페러": 3576,
      "여친": 3577,
      "오즈": 3578,
      "위대": 3579,
      "있었다": 3580,
      "재생": 3581,
      "조심": 3582,
      "죽을": 3583,
      "지가": 3584,
      "지고": 3585,
      "지지": 3586,
      "찾습니다": 3587,
      "최후의": 3588,
      "최악의": 3589,
      "케이": 3590,
      "코리아": 3591,
      "타락": 3592,
      "투자": 3593,
      "트라": 3594,
      "페르": 3595,
      "피스": 3596,
      "하자": 3597,
      "후작": 3598,
      "세계관": 3599,
      "헌터로": 3600,
      "마법의": 3601,
      "재벌까지": 3602,
      "기사는": 3603,
      "사이비": 3604,
      "사이에": 3605,
      "망나니는": 3606,
      "우리의": 3607,
      "재능이": 3608,
      "계약직": 3609,
      "메이저리": 3610,
      "먼치킨이": 3611,
      "무한전생": 3612,
      "용병이": 3613,
      "판타지의": 3614,
      "바람이": 3615,
      "아니야": 3616,
      "당신은": 3617,
      "당신에게": 3618,
      "종말의": 3619,
      "음악천재": 3620,
      "태어나": 3621,
      "꿈꾸다": 3622,
      "죽여라": 3623,
      "황태자": 3624,
      "선생님": 3625,
      "영원한": 3626,
      "보고서": 3627,
      "퇴마사": 3628,
      "다정한": 3629,
      "길들여": 3630,
      "파일럿": 3631,
      "버렸습니다": 3632,
      "편의점": 3633,
      "프러포즈": 3634,
      "스켈레톤": 3635,
      "FFF급": 3636,
      "16": 3637,
      "de": 3638,
      "of": 3639,
      "ol": 3640,
      "가수": 3641,
      "강탈": 3642,
      "검사가": 3643,
      "것을": 3644,
      "골목": 3645,
      "공자가": 3646,
      "관심": 3647,
      "구의": 3648,
      "국가": 3649,
      "꽃은": 3650,
      "남친": 3651,
      "네트": 3652,
      "노가다": 3653,
      "단장": 3654,
      "당했다": 3655,
      "대군": 3656,
      "대생": 3657,
      "데몬": 3658,
      "돌이": 3659,
      "드루": 3660,
      "드리": 3661,
      "드릴": 3662,
      "들은": 3663,
      "라니": 3664,
      "리언": 3665,
      "마에": 3666,
      "만난": 3667,
      "만세": 3668,
      "맞선": 3669,
      "매화": 3670,
      "묵시록": 3671,
      "물의": 3672,
      "밤을": 3673,
      "보디": 3674,
      "보우": 3675,
      "본능": 3676,
      "부가": 3677,
      "부수": 3678,
      "비의": 3679,
      "사업": 3680,
      "스승": 3681,
      "시나": 3682,
      "실패": 3683,
      "아주": 3684,
      "어나": 3685,
      "에스": 3686,
      "여기": 3687,
      "염의": 3688,
      "였던": 3689,
      "왕녀": 3690,
      "용을": 3691,
      "유저": 3692,
      "이가": 3693,
      "이미": 3694,
      "자유": 3695,
      "전문": 3696,
      "전이": 3697,
      "졸업": 3698,
      "지로": 3699,
      "지하": 3700,
      "추리": 3701,
      "클라": 3702,
      "클리어": 3703,
      "타고": 3704,
      "터치": 3705,
      "특수": 3706,
      "팩트": 3707,
      "포텐": 3708,
      "프레": 3709,
      "플로": 3710,
      "하신다": 3711,
      "해라": 3712,
      "향해": 3713,
      "호텔": 3714,
      "홀릭": 3715,
      "마법소녀": 3716,
      "작가가": 3717,
      "연애의": 3718,
      "주인공은": 3719,
      "플레이어의": 3720,
      "던전을": 3721,
      "그대가": 3722,
      "재능으로": 3723,
      "빙의한": 3724,
      "남편을": 3725,
      "대한제국": 3726,
      "무공을": 3727,
      "월드스타": 3728,
      "찾아서": 3729,
      "흑막의": 3730,
      "공녀님": 3731,
      "그래도": 3732,
      "만들기": 3733,
      "작전명": 3734,
      "사령관": 3735,
      "어둠의": 3736,
      "알았는데": 3737,
      "찬란한": 3738,
      "잔인한": 3739,
      "스마트폰": 3740,
      "500": 3741,
      "Bl": 3742,
      "De": 3743,
      "Re": 3744,
      "s급": 3745,
      "가라": 3746,
      "가져": 3747,
      "갑자기": 3748,
      "갔다": 3749,
      "거야": 3750,
      "겠습니까": 3751,
      "겨진": 3752,
      "고등": 3753,
      "곳에": 3754,
      "과금": 3755,
      "구미": 3756,
      "귤러": 3757,
      "근육": 3758,
      "기술": 3759,
      "내꺼": 3760,
      "눈의": 3761,
      "니는": 3762,
      "달을": 3763,
      "대의": 3764,
      "도가": 3765,
      "돈이": 3766,
      "되었": 3767,
      "드로": 3768,
      "뜻대로": 3769,
      "려고": 3770,
      "리그": 3771,
      "마르": 3772,
      "많은": 3773,
      "말을": 3774,
      "망국의": 3775,
      "메타": 3776,
      "멜로": 3777,
      "미로": 3778,
      "미션": 3779,
      "미안": 3780,
      "반역": 3781,
      "베르": 3782,
      "병사": 3783,
      "보스의": 3784,
      "보인다": 3785,
      "본다": 3786,
      "봄이": 3787,
      "브라": 3788,
      "사자의": 3789,
      "삼킨": 3790,
      "세가의": 3791,
      "셜록": 3792,
      "수업": 3793,
      "스텟": 3794,
      "스톤": 3795,
      "신세계": 3796,
      "아서": 3797,
      "악인": 3798,
      "업자": 3799,
      "여주": 3800,
      "열혈": 3801,
      "였습니다": 3802,
      "예쁜": 3803,
      "왕자의": 3804,
      "왕자가": 3805,
      "이레": 3806,
      "이트": 3807,
      "자동": 3808,
      "자들의": 3809,
      "잡고": 3810,
      "정상": 3811,
      "제안": 3812,
      "조용": 3813,
      "지니": 3814,
      "차가": 3815,
      "천국": 3816,
      "천왕": 3817,
      "청소": 3818,
      "쳤다": 3819,
      "출신": 3820,
      "포터": 3821,
      "학생이": 3822,
      "해주세요": 3823,
      "해드립니다": 3824,
      "환영": 3825,
      "황궁": 3826,
      "회장": 3827,
      "효과": 3828,
      "회귀록": 3829,
      "회귀를": 3830,
      "세계는": 3831,
      "마법이": 3832,
      "생활기": 3833,
      "아포칼립스에서": 3834,
      "남자가": 3835,
      "마왕님": 3836,
      "스타트": 3837,
      "무림에서": 3838,
      "전생이": 3839,
      "배우가": 3840,
      "무한의": 3841,
      "레벨업하는": 3842,
      "막내는": 3843,
      "시대의": 3844,
      "나라를": 3845,
      "운명을": 3846,
      "어서오세요": 3847,
      "야구를": 3848,
      "이름은": 3849,
      "부부의": 3850,
      "도련님은": 3851,
      "아기부터": 3852,
      "고구려": 3853,
      "구미호": 3854,
      "1권": 3855,
      "66": 3856,
      "ER": 3857,
      "OZ": 3858,
      "ab": 3859,
      "ro": 3860,
      "se": 3861,
      "un": 3862,
      "vi": 3863,
      "가신다": 3864,
      "간의": 3865,
      "건설": 3866,
      "검객": 3867,
      "검왕": 3868,
      "격수": 3869,
      "곤륜": 3870,
      "골렘": 3871,
      "공학": 3872,
      "구단": 3873,
      "그와": 3874,
      "그레이": 3875,
      "기의": 3876,
      "꿈의": 3877,
      "끝에서": 3878,
      "난이": 3879,
      "내려": 3880,
      "니티": 3881,
      "더라": 3882,
      "되기로": 3883,
      "둔재": 3884,
      "디자": 3885,
      "때까지": 3886,
      "뜨는": 3887,
      "러스": 3888,
      "리버스": 3889,
      "만리": 3890,
      "머릿": 3891,
      "메디": 3892,
      "명문": 3893,
      "모리": 3894,
      "몸에": 3895,
      "무엇": 3896,
      "미녀": 3897,
      "백의": 3898,
      "버그": 3899,
      "버프": 3900,
      "볼러": 3901,
      "부동": 3902,
      "사장": 3903,
      "서브": 3904,
      "성자": 3905,
      "속삭": 3906,
      "쉬고": 3907,
      "승부": 3908,
      "시골": 3909,
      "신공": 3910,
      "심판": 3911,
      "어진": 3912,
      "엔터": 3913,
      "연의": 3914,
      "염라": 3915,
      "오면": 3916,
      "와이": 3917,
      "이후의": 3918,
      "일드": 3919,
      "일이": 3920,
      "자를": 3921,
      "잘못": 3922,
      "적이": 3923,
      "제갈": 3924,
      "제패": 3925,
      "졌어요": 3926,
      "조금": 3927,
      "조상": 3928,
      "주워": 3929,
      "찾은": 3930,
      "천기": 3931,
      "최상": 3932,
      "카오스": 3933,
      "클로": 3934,
      "타인": 3935,
      "태극": 3936,
      "투신": 3937,
      "합시다": 3938,
      "해의": 3939,
      "했던": 3940,
      "헬창": 3941,
      "호위": 3942,
      "흔한": 3943,
      "회귀했는데": 3944,
      "게임은": 3945,
      "게임을": 3946,
      "게임이": 3947,
      "마왕을": 3948,
      "세상에": 3949,
      "능력으로": 3950,
      "멸망할": 3951,
      "아들로": 3952,
      "이계의": 3953,
      "군주의": 3954,
      "차원의": 3955,
      "미래에서": 3956,
      "들어왔다": 3957,
      "살인사건": 3958,
      "성좌가": 3959,
      "기적을": 3960,
      "시스템으로": 3961,
      "집착한다": 3962,
      "고양이가": 3963,
      "노예가": 3964,
      "성공기": 3965,
      "sss급": 3966,
      "영혼의": 3967,
      "아닌데요": 3968,
      "노블오즈": 3969,
      "지켜라": 3970,
      "사무소": 3971,
      "양아치": 3972,
      "인공지능": 3973,
      "마에스트로": 3974,
      "이레귤러": 3975,
      "조용히": 3976,
      "1인": 3977,
      "300": 3978,
      "IN": 3979,
      "IT": 3980,
      "각시": 3981,
      "강사": 3982,
      "강태": 3983,
      "개척": 3984,
      "걸린": 3985,
      "관종": 3986,
      "교수가": 3987,
      "그들의": 3988,
      "금융": 3989,
      "기묘한": 3990,
      "길을": 3991,
      "김에": 3992,
      "끌림": 3993,
      "낙하": 3994,
      "날아": 3995,
      "농사": 3996,
      "눈부": 3997,
      "달인": 3998,
      "대제": 3999,
      "대우가": 4000,
      "데릴": 4001,
      "돼지": 4002,
      "들고": 4003,
      "라리": 4004,
      "랭킹": 4005,
      "로봇": 4006,
      "론의": 4007,
      "리고": 4008,
      "마수": 4009,
      "마존": 4010,
      "마피아": 4011,
      "맞고": 4012,
      "먹다": 4013,
      "멋대로": 4014,
      "명서": 4015,
      "모델": 4016,
      "모래": 4017,
      "무영": 4018,
      "미국": 4019,
      "번개": 4020,
      "별의": 4021,
      "불러": 4022,
      "사장님": 4023,
      "셋째": 4024,
      "손자": 4025,
      "스위": 4026,
      "스폰": 4027,
      "시녀": 4028,
      "쓴다": 4029,
      "씹어": 4030,
      "아콰": 4031,
      "아크": 4032,
      "안개": 4033,
      "안아": 4034,
      "야한": 4035,
      "야행": 4036,
      "업어": 4037,
      "여명": 4038,
      "오만한": 4039,
      "요정": 4040,
      "우드": 4041,
      "우울": 4042,
      "원이": 4043,
      "원해": 4044,
      "웹소설": 4045,
      "의사": 4046,
      "이터": 4047,
      "잃은": 4048,
      "자식": 4049,
      "잔혹": 4050,
      "잘못된": 4051,
      "잡캐": 4052,
      "저드": 4053,
      "정치": 4054,
      "진심": 4055,
      "치고": 4056,
      "치명": 4057,
      "크라": 4058,
      "탐하다": 4059,
      "터파": 4060,
      "팀장": 4061,
      "파멸": 4062,
      "평행": 4063,
      "플래": 4064,
      "할래요": 4065,
      "해줘": 4066,
      "호랑이": 4067,
      "홈즈": 4068,
      "황혼": 4069,
      "훔치다": 4070,
      "사랑하지": 4071,
      "아카데미가": 4072,
      "살아가기": 4073,
      "스타의": 4074,
      "전생에": 4075,
      "세상은": 4076,
      "재능의": 4077,
      "시작부터": 4078,
      "네크로": 4079,
      "정령왕": 4080,
      "초월급": 4081,
      "몬스터가": 4082,
      "이라도": 4083,
      "여행자": 4084,
      "10년": 4085,
      "처음부터": 4086,
      "흑막이": 4087,
      "캐릭터로": 4088,
      "하나로": 4089,
      "떨어졌다": 4090,
      "바다의": 4091,
      "테이밍": 4092,
      "황녀님": 4093,
      "키운다": 4094,
      "미치도록": 4095,
      "죽이고": 4096,
      "저주받은": 4097,
      "관리자": 4098,
      "폭풍의": 4099,
      "미스터리": 4100,
      "엄마가": 4101,
      "계승자": 4102,
      "감정사": 4103,
      "지독한": 4104,
      "건물주": 4105,
      "언제나": 4106,
      "보디가드": 4107,
      "메디컬": 4108,
      "낙하산": 4109,
      "데릴사위": 4110,
      "아콰터파": 4111,
      "아콰터파나": 4112,
      "24": 4113,
      "3부": 4114,
      "5권": 4115,
      "CE": 4116,
      "Li": 4117,
      "St": 4118,
      "ay": 4119,
      "걷는": 4120,
      "걸까": 4121,
      "교사": 4122,
      "그가": 4123,
      "그렇게": 4124,
      "기행": 4125,
      "꽃의": 4126,
      "내기": 4127,
      "노트": 4128,
      "눈떠보니": 4129,
      "독립": 4130,
      "독보": 4131,
      "독존": 4132,
      "되겠습니다": 4133,
      "될까요": 4134,
      "둘째": 4135,
      "드레스": 4136,
      "따위": 4137,
      "때문": 4138,
      "랍니다": 4139,
      "리메이": 4140,
      "마가": 4141,
      "마다": 4142,
      "말아": 4143,
      "망했다": 4144,
      "무슨": 4145,
      "미남": 4146,
      "미식": 4147,
      "믿지": 4148,
      "바바": 4149,
      "반의": 4150,
      "변경": 4151,
      "부는": 4152,
      "부적": 4153,
      "부르는": 4154,
      "불건": 4155,
      "불행": 4156,
      "블리": 4157,
      "비행": 4158,
      "살기": 4159,
      "살려": 4160,
      "살부터": 4161,
      "삼키다": 4162,
      "삽니다": 4163,
      "상처": 4164,
      "생기": 4165,
      "설명서": 4166,
      "세의": 4167,
      "센터": 4168,
      "수를": 4169,
      "스틸": 4170,
      "스피": 4171,
      "시계": 4172,
      "시는": 4173,
      "시절": 4174,
      "시즌": 4175,
      "신기": 4176,
      "신사": 4177,
      "신성": 4178,
      "싹쓸": 4179,
      "아레": 4180,
      "악한": 4181,
      "야의": 4182,
      "어의": 4183,
      "얻었다": 4184,
      "여신": 4185,
      "연중": 4186,
      "열전": 4187,
      "오른": 4188,
      "오지": 4189,
      "운영": 4190,
      "워커": 4191,
      "원의": 4192,
      "웠습니다": 4193,
      "위저드": 4194,
      "이든": 4195,
      "이후": 4196,
      "이것이": 4197,
      "일인": 4198,
      "잠든": 4199,
      "저는": 4200,
      "제발": 4201,
      "조의": 4202,
      "죽는": 4203,
      "지나": 4204,
      "집행": 4205,
      "천신": 4206,
      "취업": 4207,
      "취직": 4208,
      "치료": 4209,
      "탐닉": 4210,
      "택배": 4211,
      "테니스": 4212,
      "토록": 4213,
      "통일": 4214,
      "트럭": 4215,
      "패도": 4216,
      "퍼스트": 4217,
      "평화": 4218,
      "포로": 4219,
      "하급": 4220,
      "하녀": 4221,
      "하드": 4222,
      "해버렸다": 4223,
      "황자": 4224,
      "회의": 4225,
      "흔적": 4226,
      "천재배우": 4227,
      "마법천재": 4228,
      "환생자": 4229,
      "SSS": 4230,
      "SS급": 4231,
      "결혼식": 4232,
      "라이트": 4233,
      "무림인": 4234,
      "사이보": 4235,
      "인생을": 4236,
      "황제까지": 4237,
      "아들은": 4238,
      "제국을": 4239,
      "드래곤을": 4240,
      "축구선수": 4241,
      "고인물의": 4242,
      "좀비가": 4243,
      "소환수": 4244,
      "스킬로": 4245,
      "검술명가": 4246,
      "나라의": 4247,
      "현대생활": 4248,
      "정복기": 4249,
      "정복자": 4250,
      "일기장": 4251,
      "123": 4252,
      "198": 4253,
      "데이트": 4254,
      "여름의": 4255,
      "태양을": 4256,
      "제로의": 4257,
      "그라운드의": 4258,
      "테이머": 4259,
      "망겜의": 4260,
      "조연이": 4261,
      "사제가": 4262,
      "도련님이": 4263,
      "욕망의": 4264,
      "999999999": 4265,
      "이웃집": 4266,
      "소원을": 4267,
      "캐리한다": 4268,
      "부탁해": 4269,
      "천마신교": 4270,
      "영업사원": 4271,
      "화려한": 4272,
      "다이아몬드": 4273,
      "아티팩트": 4274,
      "드루이드": 4275,
      "차가운": 4276,
      "리메이크": 4277,
      "싹쓸이": 4278,
      "4권": 4279,
      "NA": 4280,
      "NS": 4281,
      "No": 4282,
      "RP": 4283,
      "VI": 4284,
      "ag": 4285,
      "it": 4286,
      "각인": 4287,
      "갇힌": 4288,
      "개미": 4289,
      "개인": 4290,
      "거기": 4291,
      "건국": 4292,
      "검선": 4293,
      "고민": 4294,
      "광풍": 4295,
      "군대": 4296,
      "극한": 4297,
      "기획": 4298,
      "꼬리": 4299,
      "날의": 4300,
      "남작": 4301,
      "남주의": 4302,
      "님과": 4303,
      "닙니다": 4304,
      "단장이": 4305,
      "대왕": 4306,
      "대학": 4307,
      "대사형": 4308,
      "덩이": 4309,
      "데레": 4310,
      "되지": 4311,
      "들지": 4312,
      "등반": 4313,
      "따가": 4314,
      "뜻밖의": 4315,
      "로얄": 4316,
      "로의": 4317,
      "르면": 4318,
      "리미": 4319,
      "마물": 4320,
      "마켓": 4321,
      "문의": 4322,
      "민이": 4323,
      "바로": 4324,
      "방식": 4325,
      "병약": 4326,
      "보려": 4327,
      "보호": 4328,
      "보이는": 4329,
      "블레이드": 4330,
      "빛이": 4331,
      "사수": 4332,
      "새로운": 4333,
      "생긴": 4334,
      "서포터": 4335,
      "설계": 4336,
      "성을": 4337,
      "소한": 4338,
      "수리": 4339,
      "수컷": 4340,
      "술의": 4341,
      "숨긴": 4342,
      "숨겨진": 4343,
      "시선": 4344,
      "시의": 4345,
      "시켜": 4346,
      "시겠습니까": 4347,
      "신전": 4348,
      "심한": 4349,
      "쓰다": 4350,
      "씹어먹": 4351,
      "아나": 4352,
      "아스": 4353,
      "아일": 4354,
      "악몽": 4355,
      "안티": 4356,
      "애니": 4357,
      "애하는": 4358,
      "야수의": 4359,
      "어떻": 4360,
      "어른": 4361,
      "어렵다": 4362,
      "없습니다": 4363,
      "에요": 4364,
      "여기사": 4365,
      "열애": 4366,
      "예정": 4367,
      "왕세": 4368,
      "왕은": 4369,
      "용이": 4370,
      "운빨": 4371,
      "유튜": 4372,
      "은하": 4373,
      "이루": 4374,
      "이용": 4375,
      "이스트": 4376,
      "일대기": 4377,
      "자다": 4378,
      "쟁패": 4379,
      "전트": 4380,
      "정신": 4381,
      "주운": 4382,
      "주행": 4383,
      "찍는": 4384,
      "챔피": 4385,
      "천선": 4386,
      "체인지": 4387,
      "초상": 4388,
      "초콜": 4389,
      "출세": 4390,
      "커플": 4391,
      "큐피": 4392,
      "클리": 4393,
      "템빨": 4394,
      "티어": 4395,
      "팀장님": 4396,
      "파는": 4397,
      "파라": 4398,
      "파워": 4399,
      "피를": 4400,
      "필더": 4401,
      "해커": 4402,
      "해먹음": 4403,
      "황홀": 4404,
      "후작가의": 4405,
      "흐른다": 4406,
      "회귀하니": 4407,
      "사랑과": 4408,
      "헌터님": 4409,
      "아이를": 4410,
      "던전의": 4411,
      "영웅전": 4412,
      "그대는": 4413,
      "계약자": 4414,
      "그녀가": 4415,
      "복수는": 4416,
      "비밀의": 4417,
      "괴물이": 4418,
      "아내를": 4419,
      "파이터": 4420,
      "마녀와": 4421,
      "공주님의": 4422,
      "심장의": 4423,
      "폭군이": 4424,
      "우주에서": 4425,
      "리아의": 4426,
      "종말에": 4427,
      "하늘을": 4428,
      "필요한": 4429,
      "죽여주는": 4430,
      "학원의": 4431,
      "전남편의": 4432,
      "치트키": 4433,
      "11권": 4434,
      "사용법": 4435,
      "죽어야": 4436,
      "에이전트": 4437,
      "파괴자": 4438,
      "키우기": 4439,
      "가상현실": 4440,
      "버려진": 4441,
      "미드필더": 4442,
      "실험체": 4443,
      "싸이코": 4444,
      "부동산": 4445,
      "속삭임": 4446,
      "챔피언": 4447,
      "초콜릿": 4448,
      "199": 4449,
      "200": 4450,
      "6권": 4451,
      "AL": 4452,
      "LB": 4453,
      "Le": 4454,
      "Mr": 4455,
      "en": 4456,
      "is": 4457,
      "가게": 4458,
      "가까": 4459,
      "개과": 4460,
      "거미": 4461,
      "겠어": 4462,
      "경비": 4463,
      "경성": 4464,
      "곤란": 4465,
      "과학": 4466,
      "구하는": 4467,
      "께서": 4468,
      "끝나": 4469,
      "나타": 4470,
      "나혼자만": 4471,
      "내는": 4472,
      "너만": 4473,
      "농부": 4474,
      "능한": 4475,
      "대군주": 4476,
      "도우": 4477,
      "되나요": 4478,
      "듀얼": 4479,
      "루션": 4480,
      "마리": 4481,
      "마치": 4482,
      "마탑": 4483,
      "많음": 4484,
      "맘대로": 4485,
      "머무": 4486,
      "멋진": 4487,
      "메카": 4488,
      "명예": 4489,
      "모르": 4490,
      "모른다": 4491,
      "목표": 4492,
      "미의": 4493,
      "받아": 4494,
      "밤이": 4495,
      "방치": 4496,
      "번만": 4497,
      "보기": 4498,
      "부대": 4499,
      "분노": 4500,
      "불사의": 4501,
      "비가": 4502,
      "비선": 4503,
      "비스": 4504,
      "비스트": 4505,
      "사양": 4506,
      "살이": 4507,
      "살해": 4508,
      "상냥": 4509,
      "상담": 4510,
      "서다": 4511,
      "소시": 4512,
      "손만": 4513,
      "손에": 4514,
      "쇼윈": 4515,
      "숨결": 4516,
      "신룡": 4517,
      "싱글": 4518,
      "쌍둥이": 4519,
      "아닙니다": 4520,
      "악덕": 4521,
      "않다": 4522,
      "어쌔": 4523,
      "언니": 4524,
      "에고": 4525,
      "엔젤": 4526,
      "연기를": 4527,
      "열매": 4528,
      "원작": 4529,
      "원나잇": 4530,
      "위기": 4531,
      "유기": 4532,
      "으러": 4533,
      "은둔": 4534,
      "을수록": 4535,
      "인사": 4536,
      "잊혀": 4537,
      "잖아": 4538,
      "잠만": 4539,
      "잠자는": 4540,
      "장에서": 4541,
      "장남은": 4542,
      "재력": 4543,
      "전선": 4544,
      "정도": 4545,
      "정체": 4546,
      "족의": 4547,
      "죽인": 4548,
      "준다": 4549,
      "즐거운": 4550,
      "진천": 4551,
      "질주": 4552,
      "짐꾼": 4553,
      "참교육": 4554,
      "창술": 4555,
      "천무": 4556,
      "최애": 4557,
      "친절한": 4558,
      "카우": 4559,
      "카이": 4560,
      "컴퓨": 4561,
      "타격": 4562,
      "테일": 4563,
      "파란": 4564,
      "파의": 4565,
      "파혼": 4566,
      "푸드": 4567,
      "프렌": 4568,
      "피의": 4569,
      "피지컬": 4570,
      "하지만": 4571,
      "해봤": 4572,
      "했지만": 4573,
      "허니": 4574,
      "협전": 4575,
      "호러": 4576,
      "홀리": 4577,
      "회장님": 4578,
      "회귀의": 4579,
      "귀환자는": 4580,
      "천마를": 4581,
      "라이브": 4582,
      "소설을": 4583,
      "인생의": 4584,
      "그대와": 4585,
      "축구를": 4586,
      "연인들": 4587,
      "남편의": 4588,
      "엑스트라는": 4589,
      "전쟁의": 4590,
      "아니라": 4591,
      "스킬은": 4592,
      "오늘의": 4593,
      "인데요": 4594,
      "신화를": 4595,
      "무공천재": 4596,
      "무공으로": 4597,
      "지옥의": 4598,
      "힐러가": 4599,
      "짐승의": 4600,
      "너에게로": 4601,
      "게이트가": 4602,
      "이번엔": 4603,
      "오빠가": 4604,
      "가면의": 4605,
      "떨어진": 4606,
      "되기까지": 4607,
      "그래서": 4608,
      "피아노": 4609,
      "연기천재": 4610,
      "특성으로": 4611,
      "새벽의": 4612,
      "미치다": 4613,
      "탈출기": 4614,
      "죽어도": 4615,
      "후회는": 4616,
      "카르탄": 4617,
      "and": 4618,
      "배틀로얄": 4619,
      "철혈의": 4620,
      "타이탄": 4621,
      "경험치": 4622,
      "출근합니다": 4623,
      "교수님": 4624,
      "사이코패스": 4625,
      "금지된": 4626,
      "메이저리거": 4627,
      "와이프": 4628,
      "최상위": 4629,
      "치명적인": 4630,
      "사이보그": 4631,
      "어떻게": 4632,
      "컴퓨터": 4633,
      "36": 4634,
      "8권": 4635,
      "B급": 4636,
      "MA": 4637,
      "My": 4638,
      "MLB": 4639,
      "ac": 4640,
      "ic": 4641,
      "to": 4642,
      "vs": 4643,
      "you": 4644,
      "가즈": 4645,
      "가챠": 4646,
      "감각": 4647,
      "갑부": 4648,
      "같다": 4649,
      "거지": 4650,
      "계략": 4651,
      "고물": 4652,
      "관한": 4653,
      "교관": 4654,
      "구독": 4655,
      "구한다": 4656,
      "군의": 4657,
      "군이": 4658,
      "귀농": 4659,
      "그저": 4660,
      "극의": 4661,
      "금서": 4662,
      "기자": 4663,
      "난다": 4664,
      "너로": 4665,
      "네요": 4666,
      "놈의": 4667,
      "눈동": 4668,
      "뉴스": 4669,
      "달에": 4670,
      "대면": 4671,
      "대처": 4672,
      "데기": 4673,
      "도전": 4674,
      "돌려": 4675,
      "되겠다": 4676,
      "됩니다": 4677,
      "들과": 4678,
      "디멘": 4679,
      "렉터": 4680,
      "로더": 4681,
      "로판": 4682,
      "르의": 4683,
      "마탑의": 4684,
      "만큼": 4685,
      "많아": 4686,
      "말단": 4687,
      "먼저": 4688,
      "면서": 4689,
      "목숨": 4690,
      "물리": 4691,
      "미연": 4692,
      "바뀌": 4693,
      "바른": 4694,
      "발렌": 4695,
      "방울": 4696,
      "백만": 4697,
      "백만장자": 4698,
      "베일": 4699,
      "보석": 4700,
      "보지": 4701,
      "보았다": 4702,
      "복사": 4703,
      "복싱": 4704,
      "봄날": 4705,
      "봄을": 4706,
      "부하": 4707,
      "빠지다": 4708,
      "빨간": 4709,
      "사부": 4710,
      "사생": 4711,
      "삼촌": 4712,
      "상남자": 4713,
      "성이": 4714,
      "섹시한": 4715,
      "솔로": 4716,
      "술사가": 4717,
      "숲에": 4718,
      "스팀": 4719,
      "승승": 4720,
      "시아의": 4721,
      "실의": 4722,
      "싸우는": 4723,
      "안드로": 4724,
      "야릇": 4725,
      "야망": 4726,
      "에덴": 4727,
      "여자가": 4728,
      "여동생": 4729,
      "역병": 4730,
      "열차": 4731,
      "오디": 4732,
      "오신": 4733,
      "온도": 4734,
      "와일드": 4735,
      "완전": 4736,
      "왕관": 4737,
      "왕좌": 4738,
      "우다": 4739,
      "월야": 4740,
      "월하": 4741,
      "웹툰": 4742,
      "이어": 4743,
      "인가": 4744,
      "자격": 4745,
      "작품": 4746,
      "장구": 4747,
      "장을": 4748,
      "전능": 4749,
      "정사": 4750,
      "종횡": 4751,
      "죽는다": 4752,
      "줍다": 4753,
      "지랄": 4754,
      "지를": 4755,
      "지망": 4756,
      "착각": 4757,
      "찾는": 4758,
      "처녀": 4759,
      "처리": 4760,
      "천검": 4761,
      "천사가": 4762,
      "코더": 4763,
      "코트": 4764,
      "크로스": 4765,
      "키스의": 4766,
      "킨다": 4767,
      "킹덤": 4768,
      "타워": 4769,
      "타자": 4770,
      "탐욕": 4771,
      "티드": 4772,
      "포션": 4773,
      "하나의": 4774,
      "학살자": 4775,
      "형제": 4776,
      "혼인": 4777,
      "혼돈의": 4778,
      "홈런": 4779,
      "화살": 4780,
      "화이트": 4781,
      "확률": 4782,
      "흑마법": 4783,
      "천재작가": 4784,
      "회귀한다": 4785,
      "사랑하라": 4786,
      "재벌3세": 4787,
      "마법사로": 4788,
      "살아간다": 4789,
      "환생기": 4790,
      "주인님": 4791,
      "라이크": 4792,
      "아이언": 4793,
      "소설에": 4794,
      "사이다": 4795,
      "플레이어가": 4796,
      "인생은": 4797,
      "그대로": 4798,
      "그대의": 4799,
      "멸망의": 4800,
      "생존법": 4801,
      "재능만렙": 4802,
      "복수하는": 4803,
      "용병왕": 4804,
      "천하무적": 4805,
      "바람둥이": 4806,
      "공작부인": 4807,
      "미래가": 4808,
      "괴물을": 4809,
      "사냥꾼의": 4810,
      "그리다": 4811,
      "마녀를": 4812,
      "100년": 4813,
      "소드마스터의": 4814,
      "사람을": 4815,
      "아빠는": 4816,
      "ver": 4817,
      "산다는": 4818,
      "이라고": 4819,
      "이라니": 4820,
      "여행기": 4821,
      "늑대가": 4822,
      "가지고": 4823,
      "톱스타의": 4824,
      "좋아해": 4825,
      "처음이": 4826,
      "만나요": 4827,
      "연예인": 4828,
      "떨어지다": 4829,
      "암살자가": 4830,
      "사내연애": 4831,
      "랭커의": 4832,
      "은퇴한": 4833,
      "마나가": 4834,
      "스탯이": 4835,
      "스페이스": 4836,
      "999999999999": 4837,
      "개발자": 4838,
      "축복을": 4839,
      "스카우": 4840,
      "모음집": 4841,
      "버림받은": 4842,
      "멜로디": 4843,
      "그레이트": 4844,
      "때문에": 4845,
      "바바리안": 4846,
      "RPG": 4847,
      "VIP": 4848,
      "황홀한": 4849,
      "개과천선": 4850,
      "비선실": 4851,
      "쇼윈도": 4852,
      "어쌔신": 4853,
      "잊혀진": 4854,
      "스팀펑크": 4855,
      "승승장구": 4856,
      "02": 4857,
      "2세": 4858,
      "3회차": 4859,
      "50": 4860,
      "70": 4861,
      "9급": 4862,
      "D급": 4863,
      "DNA": 4864,
      "Love": 4865,
      "Me": 4866,
      "NE": 4867,
      "TH": 4868,
      "XX": 4869,
      "ast": 4870,
      "ion": 4871,
      "love": 4872,
      "ter": 4873,
      "가이": 4874,
      "가이드": 4875,
      "각하": 4876,
      "감옥": 4877,
      "개망나니": 4878,
      "객잔": 4879,
      "걷다": 4880,
      "견문": 4881,
      "고래": 4882,
      "고수가": 4883,
      "공식": 4884,
      "공자는": 4885,
      "공학자": 4886,
      "광전사": 4887,
      "구리": 4888,
      "구슬": 4889,
      "구하": 4890,
      "구현": 4891,
      "구하면": 4892,
      "군벌": 4893,
      "권능": 4894,
      "그곳에": 4895,
      "금단의": 4896,
      "깊이": 4897,
      "나한테": 4898,
      "낭만": 4899,
      "너스": 4900,
      "눈이": 4901,
      "니트": 4902,
      "님을": 4903,
      "다르다": 4904,
      "다니는": 4905,
      "당의": 4906,
      "당함": 4907,
      "대역": 4908,
      "대충": 4909,
      "대행": 4910,
      "대항해": 4911,
      "더블": 4912,
      "도로": 4913,
      "도박": 4914,
      "독비": 4915,
      "돌파": 4916,
      "동료": 4917,
      "동의": 4918,
      "드롬": 4919,
      "드시": 4920,
      "따라": 4921,
      "렉스": 4922,
      "려는": 4923,
      "로서": 4924,
      "루나": 4925,
      "루프": 4926,
      "르지": 4927,
      "리버": 4928,
      "마약": 4929,
      "막내가": 4930,
      "맞춤": 4931,
      "매드": 4932,
      "맹세": 4933,
      "먹지": 4934,
      "명품": 4935,
      "모드": 4936,
      "무료": 4937,
      "무서": 4938,
      "무능력": 4939,
      "물량": 4940,
      "미야": 4941,
      "미학": 4942,
      "미쳤다": 4943,
      "바뀐": 4944,
      "바디": 4945,
      "바리": 4946,
      "받았다": 4947,
      "배드": 4948,
      "베스트": 4949,
      "보물": 4950,
      "본주의": 4951,
      "볼루션": 4952,
      "봄의": 4953,
      "불괴": 4954,
      "불법": 4955,
      "불의": 4956,
      "비즈": 4957,
      "빠져": 4958,
      "쁘다": 4959,
      "사망": 4960,
      "상상": 4961,
      "색의": 4962,
      "생사": 4963,
      "서고": 4964,
      "서버": 4965,
      "서자는": 4966,
      "선비": 4967,
      "성검": 4968,
      "세종": 4969,
      "셰이크": 4970,
      "손으로": 4971,
      "수석": 4972,
      "수행": 4973,
      "순수": 4974,
      "숲의": 4975,
      "스며": 4976,
      "스즈": 4977,
      "식을": 4978,
      "식의": 4979,
      "신대륙": 4980,
      "신드롬": 4981,
      "십니까": 4982,
      "아우": 4983,
      "알려": 4984,
      "액션": 4985,
      "얀데레": 4986,
      "억만장자": 4987,
      "없음": 4988,
      "여왕의": 4989,
      "연극": 4990,
      "열등": 4991,
      "영재": 4992,
      "옆집에": 4993,
      "오래": 4994,
      "오픈": 4995,
      "와요": 4996,
      "왕기": 4997,
      "외동": 4998,
      "워크": 4999,
      "윈터": 5000,
      "으니": 5001,
      "은빛": 5002,
      "이닝": 5003,
      "이래": 5004,
      "이러": 5005,
      "이지만": 5006,
      "익스": 5007,
      "인턴": 5008,
      "일단": 5009,
      "일본": 5010,
      "일어": 5011,
      "일간의": 5012,
      "임페": 5013,
      "자본주의": 5014,
      "잖아요": 5015,
      "장교": 5016,
      "재건": 5017,
      "전부": 5018,
      "전성": 5019,
      "접근": 5020,
      "접수": 5021,
      "정략": 5022,
      "제독": 5023,
      "조작": 5024,
      "조폭": 5025,
      "존재": 5026,
      "준비": 5027,
      "지킨다": 5028,
      "짓는": 5029,
      "차남은": 5030,
      "창천": 5031,
      "책임": 5032,
      "천산": 5033,
      "천상": 5034,
      "천애": 5035,
      "청년": 5036,
      "최대": 5037,
      "최면": 5038,
      "추구하면": 5039,
      "취하다": 5040,
      "치를": 5041,
      "카운": 5042,
      "칼날": 5043,
      "캐가": 5044,
      "태평": 5045,
      "태양이": 5046,
      "테스터": 5047,
      "퇴물": 5048,
      "틀린": 5049,
      "파업": 5050,
      "평정": 5051,
      "포츠": 5052,
      "하사": 5053,
      "하셨다": 5054,
      "향하여": 5055,
      "헌팅": 5056,
      "헤어": 5057,
      "현상": 5058,
      "호구": 5059,
      "호의": 5060,
      "환동": 5061,
      "히의": 5062,
      "회귀해": 5063,
      "회귀빨로": 5064,
      "헌터를": 5065,
      "마왕성": 5066,
      "무림최강": 5067,
      "전생을": 5068,
      "전생의": 5069,
      "우리들의": 5070,
      "황제를": 5071,
      "멸망을": 5072,
      "재능충": 5073,
      "계약결혼": 5074,
      "그녀와": 5075,
      "그녀에게": 5076,
      "빌런은": 5077,
      "엑스트라로": 5078,
      "네크로맨서는": 5079,
      "친구는": 5080,
      "기억의": 5081,
      "심장에": 5082,
      "회귀자를": 5083,
      "키스를": 5084,
      "월드클래스": 5085,
      "종말을": 5086,
      "주의보": 5087,
      "방송천재": 5088,
      "파이어볼러": 5089,
      "처음이지": 5090,
      "지배하는": 5091,
      "하늘의": 5092,
      "194": 5093,
      "태어났다": 5094,
      "행복한": 5095,
      "NPC가": 5096,
      "아찔하게": 5097,
      "하루히의": 5098,
      "방랑자": 5099,
      "귀족이": 5100,
      "도련님": 5101,
      "죽이기": 5102,
      "천년의": 5103,
      "하룻밤의": 5104,
      "남주를": 5105,
      "깨어난": 5106,
      "스토커": 5107,
      "천만배우": 5108,
      "가정부": 5109,
      "달라졌어요": 5110,
      "경이로운": 5111,
      "환영합니다": 5112,
      "머릿속에": 5113,
      "스폰서": 5114,
      "불건전한": 5115,
      "아일랜드": 5116,
      "머무는": 5117,
      "디멘션": 5118,
      "스즈미야": 5119,
      "25": 5120,
      "2차": 5121,
      "37": 5122,
      "7권": 5123,
      "E급": 5124,
      "Ne": 5125,
      "SF": 5126,
      "ST": 5127,
      "VS": 5128,
      "od": 5129,
      "가야": 5130,
      "강의": 5131,
      "것들": 5132,
      "경호": 5133,
      "계의": 5134,
      "고대": 5135,
      "고생": 5136,
      "관하여": 5137,
      "광해": 5138,
      "괴담": 5139,
      "구두": 5140,
      "구하라": 5141,
      "국회의": 5142,
      "귀찮": 5143,
      "귀향": 5144,
      "그늘": 5145,
      "글로": 5146,
      "기어": 5147,
      "기에": 5148,
      "꼴통": 5149,
      "꽃길": 5150,
      "꽃잎": 5151,
      "꾸는": 5152,
      "꿀빠는": 5153,
      "나가는": 5154,
      "낙인": 5155,
      "남매": 5156,
      "남작가의": 5157,
      "너라는": 5158,
      "네버": 5159,
      "년의": 5160,
      "농장": 5161,
      "뇌신": 5162,
      "눈꽃": 5163,
      "뉴욕": 5164,
      "다이스": 5165,
      "달링": 5166,
      "답하라": 5167,
      "대는": 5168,
      "대도": 5169,
      "더스": 5170,
      "던짐": 5171,
      "도발": 5172,
      "도한다": 5173,
      "동안": 5174,
      "돼요": 5175,
      "두번째": 5176,
      "들레": 5177,
      "등장": 5178,
      "딸로": 5179,
      "뛰는": 5180,
      "랑의": 5181,
      "랭크": 5182,
      "러리": 5183,
      "레터": 5184,
      "로우": 5185,
      "룡기": 5186,
      "리더": 5187,
      "리오": 5188,
      "린의": 5189,
      "마마": 5190,
      "마침": 5191,
      "막는": 5192,
      "만으로": 5193,
      "말할": 5194,
      "매력": 5195,
      "멈춰": 5196,
      "모닝": 5197,
      "무너": 5198,
      "무도": 5199,
      "뭔가": 5200,
      "미소녀": 5201,
      "반드시": 5202,
      "발할": 5203,
      "방어": 5204,
      "버리": 5205,
      "병이": 5206,
      "봉인": 5207,
      "북벌": 5208,
      "분식": 5209,
      "불어": 5210,
      "뷰티": 5211,
      "브로": 5212,
      "비정": 5213,
      "뿐인": 5214,
      "사고": 5215,
      "사육": 5216,
      "사채": 5217,
      "살겠습니다": 5218,
      "삶을": 5219,
      "상관": 5220,
      "상왕": 5221,
      "서머": 5222,
      "셨습니다": 5223,
      "소이다": 5224,
      "손님": 5225,
      "손을": 5226,
      "쉬운": 5227,
      "스톰": 5228,
      "스나이": 5229,
      "슬픈": 5230,
      "승자": 5231,
      "시험": 5232,
      "신랑": 5233,
      "신흥": 5234,
      "실력": 5235,
      "실록": 5236,
      "싫은": 5237,
      "심연": 5238,
      "쏟아": 5239,
      "아님": 5240,
      "아마": 5241,
      "아파트": 5242,
      "안전": 5243,
      "알아": 5244,
      "야차": 5245,
      "었어": 5246,
      "었는데": 5247,
      "연구": 5248,
      "예고": 5249,
      "예뻐": 5250,
      "오프": 5251,
      "올인": 5252,
      "완결": 5253,
      "왕후": 5254,
      "왕전기": 5255,
      "왕국의": 5256,
      "울지": 5257,
      "원래": 5258,
      "웨폰": 5259,
      "유토": 5260,
      "으세요": 5261,
      "이게": 5262,
      "이고": 5263,
      "이리": 5264,
      "이성": 5265,
      "이탈": 5266,
      "이토록": 5267,
      "인과": 5268,
      "인터": 5269,
      "인으로": 5270,
      "일에": 5271,
      "일을": 5272,
      "입맞춤": 5273,
      "자연": 5274,
      "자와": 5275,
      "잘하는": 5276,
      "잠깐": 5277,
      "장은": 5278,
      "장인": 5279,
      "재워": 5280,
      "저택": 5281,
      "저세상": 5282,
      "전신": 5283,
      "제3": 5284,
      "제비": 5285,
      "져라": 5286,
      "주술": 5287,
      "죽일": 5288,
      "중고": 5289,
      "증후": 5290,
      "지침": 5291,
      "집어": 5292,
      "책을": 5293,
      "철검": 5294,
      "첫사랑이": 5295,
      "청부": 5296,
      "쳐라": 5297,
      "총잡이": 5298,
      "코딩": 5299,
      "코스": 5300,
      "크레이": 5301,
      "키움": 5302,
      "키퍼": 5303,
      "타곤": 5304,
      "탈모": 5305,
      "탑배우": 5306,
      "탑셰프": 5307,
      "테리": 5308,
      "특허": 5309,
      "파천": 5310,
      "페미": 5311,
      "폐인": 5312,
      "표류": 5313,
      "프라이": 5314,
      "플렉스": 5315,
      "피해": 5316,
      "피하는": 5317,
      "하시겠습니까": 5318,
      "한여름": 5319,
      "현세": 5320,
      "혹은": 5321,
      "화점": 5322,
      "환의": 5323,
      "활용": 5324,
      "황비": 5325,
      "황이": 5326,
      "회개": 5327,
      "훔친": 5328,
      "흐르는": 5329,
      "흑룡": 5330,
      "흑마법사의": 5331,
      "사랑하다": 5332,
      "아카데미를": 5333,
      "마법으로": 5334,
      "마법명가": 5335,
      "재벌로": 5336,
      "최강이": 5337,
      "아포칼립스를": 5338,
      "라이즈": 5339,
      "라이징": 5340,
      "에게는": 5341,
      "전생했더니": 5342,
      "레벨이": 5343,
      "능력은": 5344,
      "영웅을": 5345,
      "영웅으로": 5346,
      "생존자": 5347,
      "축구의": 5348,
      "시작합니다": 5349,
      "용병의": 5350,
      "군주가": 5351,
      "악당을": 5352,
      "고인물은": 5353,
      "연인의": 5354,
      "바람과": 5355,
      "차원이": 5356,
      "네크로맨서의": 5357,
      "친구가": 5358,
      "영주님은": 5359,
      "공주와": 5360,
      "미친놈이": 5361,
      "소드마스터가": 5362,
      "아이돌의": 5363,
      "보스가": 5364,
      "구원자가": 5365,
      "슈퍼리치": 5366,
      "이라는": 5367,
      "바이킹": 5368,
      "시스템이": 5369,
      "찾아왔다": 5370,
      "비서의": 5371,
      "야구의": 5372,
      "10권": 5373,
      "현실이": 5374,
      "사기캐": 5375,
      "하늘에서": 5376,
      "이름을": 5377,
      "이름으로": 5378,
      "단편선": 5379,
      "필요하다": 5380,
      "평범하게": 5381,
      "하루만": 5382,
      "나비의": 5383,
      "불꽃의": 5384,
      "고려의": 5385,
      "영원히": 5386,
      "다이어리": 5387,
      "무협지": 5388,
      "인형의": 5389,
      "피어난": 5390,
      "진화한다": 5391,
      "야만전사": 5392,
      "트로피": 5393,
      "지독하게": 5394,
      "기생충": 5395,
      "약혼녀": 5396,
      "반짝반짝": 5397,
      "사로잡힌": 5398,
      "후계자가": 5399,
      "매혹의": 5400,
      "최약체": 5401,
      "크로니": 5402,
      "그들만의": 5403,
      "바꾸는": 5404,
      "입학했다": 5405,
      "최초의": 5406,
      "첫날밤": 5407,
      "감평용": 5408,
      "거부할": 5409,
      "내일은": 5410,
      "무림맹주": 5411,
      "금강불괴": 5412,
      "독재자": 5413,
      "사진기사": 5414,
      "드릴게요": 5415,
      "어나더": 5416,
      "지니어": 5417,
      "스위트": 5418,
      "정체를": 5419,
      "카우보이": 5420,
      "바뀌었다": 5421,
      "야릇한": 5422,
      "오디션": 5423,
      "스카우트": 5424,
      "비선실세": 5425,
      "비즈니스": 5426,
      "스나이퍼": 5427,
      "증후군": 5428,
      "지침서": 5429,
      "1년": 5430,
      "9권": 5431,
      "BA": 5432,
      "IG": 5433,
      "OS": 5434,
      "RE": 5435,
      "SNS": 5436,
      "ct": 5437,
      "gh": 5438,
      "ling": 5439,
      "th": 5440,
      "ue": 5441,
      "가자": 5442,
      "간도": 5443,
      "갓겜": 5444,
      "강제": 5445,
      "갖고": 5446,
      "거대": 5447,
      "검황": 5448,
      "검신이": 5449,
      "겁니다": 5450,
      "격의": 5451,
      "격자": 5452,
      "결말": 5453,
      "결자": 5454,
      "고귀한": 5455,
      "공방": 5456,
      "공부": 5457,
      "과외": 5458,
      "과장": 5459,
      "관찰": 5460,
      "광고": 5461,
      "광신": 5462,
      "괴이": 5463,
      "구세": 5464,
      "국민": 5465,
      "궁수": 5466,
      "귀의": 5467,
      "귀재": 5468,
      "그런": 5469,
      "극한의": 5470,
      "기둥": 5471,
      "기레기": 5472,
      "김정": 5473,
      "꼬셔": 5474,
      "꿈속에서": 5475,
      "끝을": 5476,
      "끝이": 5477,
      "끝판": 5478,
      "나다": 5479,
      "나인": 5480,
      "남동생이": 5481,
      "노빠": 5482,
      "노을": 5483,
      "눈빛": 5484,
      "느낌": 5485,
      "늦은": 5486,
      "니스의": 5487,
      "대본": 5488,
      "대하는": 5489,
      "대마도": 5490,
      "던트": 5491,
      "되돌": 5492,
      "뒤바뀐": 5493,
      "드러": 5494,
      "드워": 5495,
      "든다": 5496,
      "듣는": 5497,
      "등선": 5498,
      "디터": 5499,
      "디스토": 5500,
      "딜리아": 5501,
      "뜨다": 5502,
      "라스": 5503,
      "락한": 5504,
      "란다": 5505,
      "런던": 5506,
      "런트": 5507,
      "령술사": 5508,
      "로망": 5509,
      "로환동": 5510,
      "룡전": 5511,
      "르트": 5512,
      "리브": 5513,
      "리트": 5514,
      "링크": 5515,
      "마황": 5516,
      "마성의": 5517,
      "매치": 5518,
      "머금": 5519,
      "멀티": 5520,
      "메랄": 5521,
      "메모리": 5522,
      "멤버": 5523,
      "모스": 5524,
      "모어": 5525,
      "목을": 5526,
      "몰빵": 5527,
      "무존": 5528,
      "무진": 5529,
      "무황": 5530,
      "무일지": 5531,
      "물약": 5532,
      "물들다": 5533,
      "미운": 5534,
      "미스트": 5535,
      "미대생": 5536,
      "민들레": 5537,
      "바둑": 5538,
      "바벨": 5539,
      "박살": 5540,
      "박스": 5541,
      "반로환동": 5542,
      "받지": 5543,
      "받았습니다": 5544,
      "발자": 5545,
      "백일": 5546,
      "버는": 5547,
      "버퍼": 5548,
      "베딜리아": 5549,
      "병장": 5550,
      "보내": 5551,
      "보겠습니다": 5552,
      "보이지": 5553,
      "복덩이": 5554,
      "부여": 5555,
      "부인의": 5556,
      "분신": 5557,
      "불리는": 5558,
      "브리": 5559,
      "비친": 5560,
      "빙환": 5561,
      "사과": 5562,
      "사마": 5563,
      "사전": 5564,
      "사파": 5565,
      "상인이": 5566,
      "서가": 5567,
      "석유": 5568,
      "선녀": 5569,
      "성무일지": 5570,
      "소공자": 5571,
      "속도": 5572,
      "송이": 5573,
      "수강": 5574,
      "수학": 5575,
      "수밖에": 5576,
      "쉐프": 5577,
      "스릴": 5578,
      "스물": 5579,
      "스펙": 5580,
      "시온": 5581,
      "시자": 5582,
      "시집": 5583,
      "시키": 5584,
      "신들": 5585,
      "실연": 5586,
      "심문": 5587,
      "십니다": 5588,
      "싶지": 5589,
      "싶었다": 5590,
      "쏴라": 5591,
      "아비": 5592,
      "아아": 5593,
      "아홉": 5594,
      "아메리": 5595,
      "안고": 5596,
      "알았다": 5597,
      "야만의": 5598,
      "약한": 5599,
      "어려": 5600,
      "없었다": 5601,
      "에도": 5602,
      "에로스": 5603,
      "에디터": 5604,
      "엔지니어": 5605,
      "여섯": 5606,
      "여주가": 5607,
      "여명의": 5608,
      "예능": 5609,
      "오아": 5610,
      "옥타곤": 5611,
      "완전한": 5612,
      "왕자는": 5613,
      "용왕": 5614,
      "원으로": 5615,
      "유럽": 5616,
      "의미": 5617,
      "이건": 5618,
      "이너": 5619,
      "이브": 5620,
      "이즈": 5621,
      "이한": 5622,
      "이종족": 5623,
      "인더": 5624,
      "인성": 5625,
      "인가요": 5626,
      "일탈": 5627,
      "있어요": 5628,
      "있으면": 5629,
      "있나요": 5630,
      "잠시": 5631,
      "저편": 5632,
      "전역": 5633,
      "전히": 5634,
      "전사의": 5635,
      "절정": 5636,
      "점령": 5637,
      "정인": 5638,
      "정자": 5639,
      "조련": 5640,
      "종이": 5641,
      "죽기": 5642,
      "중간": 5643,
      "중생": 5644,
      "지기": 5645,
      "지도": 5646,
      "진한": 5647,
      "찬가": 5648,
      "창업": 5649,
      "찾다": 5650,
      "천강": 5651,
      "천당": 5652,
      "천룡": 5653,
      "천조": 5654,
      "천풍": 5655,
      "체크": 5656,
      "초보": 5657,
      "춤추": 5658,
      "측정": 5659,
      "친절": 5660,
      "친애하는": 5661,
      "침대": 5662,
      "카피": 5663,
      "타의": 5664,
      "탐험": 5665,
      "탐나는": 5666,
      "토마": 5667,
      "티스": 5668,
      "파고": 5669,
      "평생": 5670,
      "폐기": 5671,
      "포에": 5672,
      "폭격": 5673,
      "폭주": 5674,
      "폭탄": 5675,
      "표국": 5676,
      "풋볼": 5677,
      "프다": 5678,
      "프라": 5679,
      "프랑": 5680,
      "하울": 5681,
      "하프": 5682,
      "학관": 5683,
      "한계": 5684,
      "합의": 5685,
      "협객": 5686,
      "화사": 5687,
      "회빙환": 5688,
      "후견": 5689,
      "후에": 5690,
      "흑염": 5691,
      "흑화": 5692,
      "힘이": 5693,
      "힘들다": 5694,
      "회귀가": 5695,
      "회귀는": 5696,
      "회귀하는": 5697,
      "헌터다": 5698,
      "마법은": 5699,
      "게임방송": 5700,
      "살아있다": 5701,
      "최강헌터": 5702,
      "이세계를": 5703,
      "귀환록": 5704,
      "귀환자가": 5705,
      "남자는": 5706,
      "작가는": 5707,
      "결혼은": 5708,
      "라이어": 5709,
      "돌아가고": 5710,
      "전생한": 5711,
      "사이드": 5712,
      "던전에": 5713,
      "던전이": 5714,
      "망나니로": 5715,
      "망나니의": 5716,
      "멸망에서": 5717,
      "생존게임": 5718,
      "절대검": 5719,
      "전설을": 5720,
      "시작은": 5721,
      "빙의자": 5722,
      "막내딸": 5723,
      "바람에": 5724,
      "차원이동": 5725,
      "신부를": 5726,
      "살아남는법": 5727,
      "매니저는": 5728,
      "100배": 5729,
      "100억": 5730,
      "러브레터": 5731,
      "소녀전생": 5732,
      "사람들": 5733,
      "사람의": 5734,
      "아빠의": 5735,
      "히어로가": 5736,
      "역전의": 5737,
      "황후가": 5738,
      "황후의": 5739,
      "대륙의": 5740,
      "처음이라": 5741,
      "12권": 5742,
      "현실에서": 5743,
      "흑막을": 5744,
      "노예로": 5745,
      "태어났": 5746,
      "공녀는": 5747,
      "상태창이": 5748,
      "상태창으로": 5749,
      "신입생이": 5750,
      "나무를": 5751,
      "여왕님": 5752,
      "죽여야": 5753,
      "스트라이크": 5754,
      "황태자비": 5755,
      "장미의": 5756,
      "NPC는": 5757,
      "나비노블": 5758,
      "조연의": 5759,
      "황녀는": 5760,
      "사제는": 5761,
      "인류의": 5762,
      "미치게": 5763,
      "안녕하세요": 5764,
      "주식회사": 5765,
      "크리스마스의": 5766,
      "공작님을": 5767,
      "만들었다": 5768,
      "연하남": 5769,
      "영화감독": 5770,
      "바라기": 5771,
      "군단의": 5772,
      "스트리머가": 5773,
      "마검사의": 5774,
      "마력이": 5775,
      "귀여워": 5776,
      "아무나": 5777,
      "외계인": 5778,
      "한국인": 5779,
      "마인드": 5780,
      "사랑한다는": 5781,
      "오리진": 5782,
      "히로인": 5783,
      "사로잡히다": 5784,
      "배달부": 5785,
      "로열로더": 5786,
      "거절합니다": 5787,
      "무지성": 5788,
      "지키는": 5789,
      "낙제생": 5790,
      "순결한": 5791,
      "조심하세요": 5792,
      "페르소나": 5793,
      "Dear": 5794,
      "기술로": 5795,
      "자동사냥": 5796,
      "청소부": 5797,
      "무엇이든": 5798,
      "씹어먹는": 5799,
      "유튜버": 5800,
      "나타났다": 5801,
      "방치형": 5802,
      "눈동자": 5803,
      "지망생": 5804,
      "견문록": 5805,
      "임페리얼": 5806,
      "국회의원": 5807,
      "잠깐만": 5808,
      "크로니클": 5809,
      "노빠꾸": 5810,
      "01": 5811,
      "1레벨": 5812,
      "1999": 5813,
      "40": 5814,
      "60": 5815,
      "??": 5816,
      "Ki": 5817,
      "Nab": 5818,
      "SE": 5819,
      "Say": 5820,
      "TO": 5821,
      "Up": 5822,
      "VE": 5823,
      "am": 5824,
      "as": 5825,
      "es": 5826,
      "ho": 5827,
      "ir": 5828,
      "ke": 5829,
      "mor": 5830,
      "ur": 5831,
      "ㅋㅋ": 5832,
      "가능": 5833,
      "가로": 5834,
      "갇힘": 5835,
      "개방": 5836,
      "개뿔": 5837,
      "개구리": 5838,
      "거침": 5839,
      "거물이": 5840,
      "건축": 5841,
      "걸이": 5842,
      "검투": 5843,
      "검성의": 5844,
      "것도": 5845,
      "것처럼": 5846,
      "경제": 5847,
      "고고": 5848,
      "고리": 5849,
      "고문": 5850,
      "고시": 5851,
      "고아": 5852,
      "교도": 5853,
      "교실": 5854,
      "교황": 5855,
      "구를": 5856,
      "구해": 5857,
      "구하다": 5858,
      "구합니다": 5859,
      "군인": 5860,
      "규격": 5861,
      "그는": 5862,
      "그러": 5863,
      "기고": 5864,
      "끌리는": 5865,
      "끝은": 5866,
      "끝의": 5867,
      "나간": 5868,
      "나락": 5869,
      "나랑": 5870,
      "나태": 5871,
      "낙오": 5872,
      "내공": 5873,
      "너희": 5874,
      "넘는": 5875,
      "네의": 5876,
      "놀이": 5877,
      "늘어": 5878,
      "달린": 5879,
      "담벼락": 5880,
      "대협": 5881,
      "덕질": 5882,
      "던져라": 5883,
      "도도": 5884,
      "도령": 5885,
      "독고": 5886,
      "돈으로": 5887,
      "동창": 5888,
      "들었다": 5889,
      "딸바보": 5890,
      "뛴다": 5891,
      "라가": 5892,
      "라클": 5893,
      "란츠": 5894,
      "량이": 5895,
      "런스": 5896,
      "레코드": 5897,
      "력의": 5898,
      "로스트": 5899,
      "룸메이트": 5900,
      "르르": 5901,
      "리가": 5902,
      "리에": 5903,
      "리터": 5904,
      "리플레이": 5905,
      "리바이": 5906,
      "마른": 5907,
      "마석": 5908,
      "마신의": 5909,
      "마술사": 5910,
      "마시다": 5911,
      "만랩": 5912,
      "만물": 5913,
      "망각": 5914,
      "매지션": 5915,
      "맹주": 5916,
      "메라": 5917,
      "메스": 5918,
      "멸문": 5919,
      "멸종": 5920,
      "모란": 5921,
      "몽골": 5922,
      "무극": 5923,
      "무덤": 5924,
      "무법": 5925,
      "무직": 5926,
      "문이": 5927,
      "문주": 5928,
      "미디": 5929,
      "바닥": 5930,
      "바의": 5931,
      "박수": 5932,
      "반도": 5933,
      "반쪽": 5934,
      "반하다": 5935,
      "받아라": 5936,
      "방원": 5937,
      "방패": 5938,
      "백두": 5939,
      "백제": 5940,
      "백합": 5941,
      "번드": 5942,
      "벚꽃": 5943,
      "변태": 5944,
      "보급": 5945,
      "보좌": 5946,
      "보험": 5947,
      "봐요": 5948,
      "부서": 5949,
      "부른다": 5950,
      "불패": 5951,
      "불편": 5952,
      "불사신": 5953,
      "브레인": 5954,
      "빌려": 5955,
      "사스": 5956,
      "사역": 5957,
      "사우": 5958,
      "사일": 5959,
      "사악한": 5960,
      "산을": 5961,
      "살을": 5962,
      "상자": 5963,
      "생김": 5964,
      "생도": 5965,
      "서는": 5966,
      "서부": 5967,
      "서약": 5968,
      "선수가": 5969,
      "설레": 5970,
      "설정": 5971,
      "성스러운": 5972,
      "세컨": 5973,
      "센트": 5974,
      "셰가": 5975,
      "속성": 5976,
      "손길": 5977,
      "수령": 5978,
      "수정": 5979,
      "순애": 5980,
      "스킨": 5981,
      "스텔": 5982,
      "스틱": 5983,
      "슬러": 5984,
      "시공": 5985,
      "시리": 5986,
      "신소": 5987,
      "신인": 5988,
      "신들린": 5989,
      "실종": 5990,
      "싫어요": 5991,
      "써전": 5992,
      "쏘다": 5993,
      "아씨": 5994,
      "않을": 5995,
      "야사": 5996,
      "양의": 5997,
      "어스": 5998,
      "어플": 5999,
      "언터": 6000,
      "업적": 6001,
      "엉뚱": 6002,
      "에어": 6003,
      "에필": 6004,
      "엔드": 6005,
      "여관": 6006,
      "역습": 6007,
      "역적": 6008,
      "역천의": 6009,
      "역주행": 6010,
      "연화": 6011,
      "열쇠": 6012,
      "열렸다": 6013,
      "열정의": 6014,
      "영역": 6015,
      "옆에": 6016,
      "오르다": 6017,
      "와인": 6018,
      "완성": 6019,
      "왈츠": 6020,
      "왕립": 6021,
      "외과의": 6022,
      "우정": 6023,
      "울프": 6024,
      "원더": 6025,
      "원소": 6026,
      "월화": 6027,
      "웰컴": 6028,
      "위장": 6029,
      "위키": 6030,
      "유쾌": 6031,
      "은행": 6032,
      "의뢰": 6033,
      "이냐": 6034,
      "이니": 6035,
      "이로": 6036,
      "이블": 6037,
      "이순": 6038,
      "이슬": 6039,
      "이었습니다": 6040,
      "이기적": 6041,
      "이렇게": 6042,
      "이끌림": 6043,
      "인기": 6044,
      "인줄": 6045,
      "읽으면": 6046,
      "입니까": 6047,
      "잊은": 6048,
      "자객": 6049,
      "자도": 6050,
      "자체": 6051,
      "잠재력": 6052,
      "잡종": 6053,
      "장르": 6054,
      "재혼": 6055,
      "쟁천": 6056,
      "적자": 6057,
      "전공": 6058,
      "전장": 6059,
      "전능의": 6060,
      "절세": 6061,
      "정이": 6062,
      "제왕의": 6063,
      "젠틀": 6064,
      "종합": 6065,
      "좋겠다": 6066,
      "좌완": 6067,
      "주술사": 6068,
      "주사위": 6069,
      "죽였다": 6070,
      "중2": 6071,
      "줘요": 6072,
      "즈번드": 6073,
      "지훈": 6074,
      "지휘": 6075,
      "직전에": 6076,
      "진혼": 6077,
      "집으로": 6078,
      "짙은": 6079,
      "짜릿": 6080,
      "천공": 6081,
      "천명": 6082,
      "천사의": 6083,
      "철학": 6084,
      "첫사랑의": 6085,
      "청룡": 6086,
      "총을": 6087,
      "침묵": 6088,
      "캐로": 6089,
      "캠핑": 6090,
      "캡틴": 6091,
      "컨설": 6092,
      "켰다": 6093,
      "콜렉터": 6094,
      "크루": 6095,
      "큼한": 6096,
      "타투": 6097,
      "태자비": 6098,
      "턴트": 6099,
      "파랑": 6100,
      "파밍": 6101,
      "파우": 6102,
      "팔찌": 6103,
      "패션": 6104,
      "퍼즐": 6105,
      "페어": 6106,
      "페이크": 6107,
      "포도": 6108,
      "포이": 6109,
      "표사": 6110,
      "푼다": 6111,
      "풍류": 6112,
      "프터": 6113,
      "프리스트": 6114,
      "필연": 6115,
      "하필": 6116,
      "하소서": 6117,
      "함부로": 6118,
      "합성": 6119,
      "허즈번드": 6120,
      "헬로": 6121,
      "혁명의": 6122,
      "현자가": 6123,
      "황자가": 6124,
      "후보": 6125,
      "흥신소": 6126,
      "흩날": 6127,
      "희생": 6128,
      "히는": 6129,
      "힘으로": 6130,
      "천재였다": 6131,
      "회귀하여": 6132,
      "사랑스런": 6133,
      "아카데미는": 6134,
      "마법학교": 6135,
      "재벌을": 6136,
      "재벌가의": 6137,
      "환생은": 6138,
      "환생자의": 6139,
      "최강자가": 6140,
      "용사로": 6141,
      "귀환했더니": 6142,
      "기사단": 6143,
      "천마검": 6144,
      "라이벌": 6145,
      "마스터가": 6146,
      "마왕과": 6147,
      "마왕님의": 6148,
      "아이는": 6149,
      "무림의": 6150,
      "소설속": 6151,
      "전생기": 6152,
      "연애를": 6153,
      "사이에서": 6154,
      "능력자의": 6155,
      "배우는": 6156,
      "시작된": 6157,
      "용병으로": 6158,
      "군주로": 6159,
      "여자와": 6160,
      "정령과": 6161,
      "차원최강": 6162,
      "강해진": 6163,
      "소환수가": 6164,
      "되어라": 6165,
      "기억하는": 6166,
      "대마법사가": 6167,
      "매니저님": 6168,
      "1000년": 6169,
      "아니면": 6170,
      "아니었다": 6171,
      "스킬이": 6172,
      "미친개": 6173,
      "미친놈": 6174,
      "각성한": 6175,
      "소녀는": 6176,
      "폭군을": 6177,
      "학교에": 6178,
      "사람이": 6179,
      "그림자의": 6180,
      "그림자가": 6181,
      "살인마": 6182,
      "엔딩을": 6183,
      "블랙홀": 6184,
      "몬스터를": 6185,
      "구원의": 6186,
      "지구가": 6187,
      "성좌의": 6188,
      "바이러스": 6189,
      "힐러는": 6190,
      "마음대로": 6191,
      "톱스타가": 6192,
      "공략법": 6193,
      "리턴즈": 6194,
      "거짓말의": 6195,
      "소리가": 6196,
      "행복을": 6197,
      "신입생": 6198,
      "막내아들은": 6199,
      "서울의": 6200,
      "탑스타의": 6201,
      "상점창": 6202,
      "조연으로": 6203,
      "성녀님": 6204,
      "튜토리얼로": 6205,
      "영원의": 6206,
      "강림하다": 6207,
      "블러디": 6208,
      "베이커": 6209,
      "브레이브": 6210,
      "진실의": 6211,
      "연하의": 6212,
      "도둑놈": 6213,
      "men": 6214,
      "폐하가": 6215,
      "폐하의": 6216,
      "프린스": 6217,
      "격투기를": 6218,
      "트롤러": 6219,
      "사형수": 6220,
      "과거의": 6221,
      "아무도": 6222,
      "타이거": 6223,
      "가시꽃": 6224,
      "수집함": 6225,
      "기연을": 6226,
      "마술의": 6227,
      "아버지의": 6228,
      "모두가": 6229,
      "예언의": 6230,
      "키다리": 6231,
      "적응기": 6232,
      "나노머신": 6233,
      "이단심문": 6234,
      "아직도": 6235,
      "있을까": 6236,
      "투명한": 6237,
      "플라워": 6238,
      "스페셜리스트": 6239,
      "물고기": 6240,
      "위대하게": 6241,
      "태어나다": 6242,
      "보우하사": 6243,
      "시나브로": 6244,
      "디자이너": 6245,
      "버프를": 6246,
      "셋째아들": 6247,
      "잔혹한": 6248,
      "부적절한": 6249,
      "택배기사": 6250,
      "큐피드": 6251,
      "끝나지": 6252,
      "푸드트럭": 6253,
      "발렌타인": 6254,
      "대항해시대": 6255,
      "무서운": 6256,
      "전성시대": 6257,
      "정략결혼": 6258,
      "발할라": 6259,
      "상관관계": 6260,
      "크레이지": 6261,
      "포에버": 6262,
      "하울링": 6263,
      "후견인": 6264,
      "Nabi": 6265,
      "세컨드": 6266,
      "에필로그": 6267,
      "35": 6268,
      "49": 6269,
      "4번": 6270,
      "5툴": 6271,
      "79": 6272,
      "AR": 6273,
      "BL": 6274,
      "HO": 6275,
      "He": 6276,
      "Lv": 6277,
      "NBA": 6278,
      "for": 6279,
      "igh": 6280,
      "my": 6281,
      "갈증": 6282,
      "감금": 6283,
      "감성": 6284,
      "강아": 6285,
      "강자": 6286,
      "개입": 6287,
      "거인": 6288,
      "건곤": 6289,
      "건드": 6290,
      "걸음": 6291,
      "것에": 6292,
      "것이다": 6293,
      "게시": 6294,
      "격정": 6295,
      "결말을": 6296,
      "경의": 6297,
      "곁에": 6298,
      "고통": 6299,
      "골동": 6300,
      "골프": 6301,
      "공격": 6302,
      "공장": 6303,
      "공허": 6304,
      "과학자": 6305,
      "광전사가": 6306,
      "교주가": 6307,
      "궁전": 6308,
      "권왕": 6309,
      "귀혼": 6310,
      "귀신이": 6311,
      "규직": 6312,
      "그거": 6313,
      "그건": 6314,
      "그놈": 6315,
      "기타": 6316,
      "길이": 6317,
      "김철": 6318,
      "깡으로": 6319,
      "꼬마": 6320,
      "꼭두": 6321,
      "꽃다": 6322,
      "꽃미남": 6323,
      "꿈속의": 6324,
      "끄적": 6325,
      "나날": 6326,
      "나로": 6327,
      "나에겐": 6328,
      "낚시": 6329,
      "날로": 6330,
      "날에": 6331,
      "남작가": 6332,
      "낭자": 6333,
      "녀가": 6334,
      "년만에": 6335,
      "노비": 6336,
      "노숙": 6337,
      "달달": 6338,
      "달려라": 6339,
      "닮은": 6340,
      "담는": 6341,
      "담당": 6342,
      "당했습니다": 6343,
      "대비": 6344,
      "대영": 6345,
      "대출": 6346,
      "대학원": 6347,
      "덕에": 6348,
      "도를": 6349,
      "도와": 6350,
      "독신": 6351,
      "독한": 6352,
      "동맹": 6353,
      "동백": 6354,
      "되면": 6355,
      "드려": 6356,
      "디아": 6357,
      "따윈": 6358,
      "또다시": 6359,
      "뚝배": 6360,
      "라라": 6361,
      "러너": 6362,
      "렉션": 6363,
      "렙업": 6364,
      "력이": 6365,
      "력99": 6366,
      "렬한": 6367,
      "로스의": 6368,
      "룡승": 6369,
      "루스": 6370,
      "리벤": 6371,
      "리온": 6372,
      "리타": 6373,
      "리스의": 6374,
      "리우드": 6375,
      "마니": 6376,
      "마시": 6377,
      "만져": 6378,
      "말괄": 6379,
      "말년": 6380,
      "말라": 6381,
      "말해": 6382,
      "맑음": 6383,
      "망상": 6384,
      "망할": 6385,
      "먹어": 6386,
      "먹은": 6387,
      "먹었다": 6388,
      "모니": 6389,
      "모로": 6390,
      "모자": 6391,
      "목록": 6392,
      "몸을": 6393,
      "무섭": 6394,
      "무왕": 6395,
      "무재능": 6396,
      "무사가": 6397,
      "묵은": 6398,
      "문과": 6399,
      "뮤니티": 6400,
      "뮬레이": 6401,
      "미술": 6402,
      "미라클": 6403,
      "밋빛": 6404,
      "밑바닥": 6405,
      "바꿔": 6406,
      "바늘": 6407,
      "방에": 6408,
      "배덕": 6409,
      "배운": 6410,
      "백조": 6411,
      "버드": 6412,
      "버트": 6413,
      "법의": 6414,
      "별거": 6415,
      "본색": 6416,
      "봉황의": 6417,
      "부족": 6418,
      "북천": 6419,
      "불시": 6420,
      "붉게": 6421,
      "붕괴": 6422,
      "비를": 6423,
      "비아의": 6424,
      "사친": 6425,
      "사표": 6426,
      "사후": 6427,
      "사소한": 6428,
      "사천당": 6429,
      "상무": 6430,
      "상황": 6431,
      "생기는": 6432,
      "서로": 6433,
      "서비스": 6434,
      "선을": 6435,
      "선인": 6436,
      "선조": 6437,
      "설화": 6438,
      "성직": 6439,
      "소동": 6440,
      "소화": 6441,
      "소기업": 6442,
      "속죄": 6443,
      "송한": 6444,
      "수꾼": 6445,
      "수명": 6446,
      "수수": 6447,
      "수와": 6448,
      "수인": 6449,
      "수첩": 6450,
      "수라의": 6451,
      "숙녀": 6452,
      "숙이": 6453,
      "숨은": 6454,
      "스윗": 6455,
      "습작": 6456,
      "시게": 6457,
      "시기": 6458,
      "시나요": 6459,
      "시뮬레이": 6460,
      "식물": 6461,
      "신神": 6462,
      "신경": 6463,
      "신령": 6464,
      "실눈": 6465,
      "실명": 6466,
      "실수": 6467,
      "싫어서": 6468,
      "싶어요": 6469,
      "썩은": 6470,
      "아델": 6471,
      "아미": 6472,
      "아싸": 6473,
      "아픈": 6474,
      "악질": 6475,
      "안되는": 6476,
      "압살": 6477,
      "압도한다": 6478,
      "야담": 6479,
      "야설": 6480,
      "약골": 6481,
      "약사": 6482,
      "약탈": 6483,
      "양자": 6484,
      "어차": 6485,
      "억울": 6486,
      "언덕": 6487,
      "업적으로": 6488,
      "에메랄": 6489,
      "엑소시": 6490,
      "여유": 6491,
      "여제": 6492,
      "여배우": 6493,
      "여동생이": 6494,
      "여배우의": 6495,
      "여전히": 6496,
      "역하렘": 6497,
      "열기": 6498,
      "영국": 6499,
      "예비": 6500,
      "오렌": 6501,
      "오류": 6502,
      "온리": 6503,
      "와룡": 6504,
      "왔어요": 6505,
      "외출": 6506,
      "용과": 6507,
      "용서": 6508,
      "용자": 6509,
      "용기사": 6510,
      "워서": 6511,
      "워요": 6512,
      "월급": 6513,
      "위로": 6514,
      "유니": 6515,
      "유성": 6516,
      "유의": 6517,
      "유학": 6518,
      "유격수": 6519,
      "육군": 6520,
      "융합": 6521,
      "응답하라": 6522,
      "의무": 6523,
      "이능": 6524,
      "이소": 6525,
      "인벤": 6526,
      "인어": 6527,
      "일월": 6528,
      "자고": 6529,
      "자세": 6530,
      "작업": 6531,
      "잔향": 6532,
      "장기": 6533,
      "장비": 6534,
      "장밋빛": 6535,
      "재단": 6536,
      "저스트": 6537,
      "저격수": 6538,
      "전담": 6539,
      "정말": 6540,
      "정보": 6541,
      "젖어": 6542,
      "제이": 6543,
      "졌습니다": 6544,
      "종사": 6545,
      "좋겠어": 6546,
      "좌의": 6547,
      "주고": 6548,
      "주제": 6549,
      "주지": 6550,
      "줄래요": 6551,
      "지면": 6552,
      "지사": 6553,
      "지애": 6554,
      "집사가": 6555,
      "짜리": 6556,
      "짧은": 6557,
      "쩔더라": 6558,
      "찍은": 6559,
      "찐따가": 6560,
      "착해": 6561,
      "챌린": 6562,
      "처블": 6563,
      "천문": 6564,
      "천상의": 6565,
      "철과": 6566,
      "체인": 6567,
      "초갑질": 6568,
      "침략": 6569,
      "침실": 6570,
      "칩니다": 6571,
      "카니": 6572,
      "카사": 6573,
      "칼끝에": 6574,
      "캔디": 6575,
      "커뮤니티": 6576,
      "코어": 6577,
      "코치": 6578,
      "크레": 6579,
      "크의": 6580,
      "키웠습니다": 6581,
      "탑에서": 6582,
      "터진": 6583,
      "테라": 6584,
      "테러": 6585,
      "테인": 6586,
      "테크": 6587,
      "통제": 6588,
      "투기": 6589,
      "트러": 6590,
      "티아": 6591,
      "파편": 6592,
      "판사": 6593,
      "패닉": 6594,
      "패러": 6595,
      "패배": 6596,
      "페어리": 6597,
      "평균": 6598,
      "평민이": 6599,
      "포탈": 6600,
      "표절": 6601,
      "품으로": 6602,
      "프트": 6603,
      "플랜": 6604,
      "플레": 6605,
      "피할": 6606,
      "하실": 6607,
      "한가": 6608,
      "할게": 6609,
      "할리우드": 6610,
      "함을": 6611,
      "합자": 6612,
      "해군": 6613,
      "해석": 6614,
      "해바라기": 6615,
      "핸드": 6616,
      "헤븐": 6617,
      "혈왕": 6618,
      "혔다": 6619,
      "호감": 6620,
      "화가": 6621,
      "화랑": 6622,
      "화신": 6623,
      "화염의": 6624,
      "환마": 6625,
      "회복": 6626,
      "훔쳐": 6627,
      "휴가": 6628,
      "흑풍": 6629,
      "히트": 6630,
      "천재배우의": 6631,
      "사랑법": 6632,
      "사랑하": 6633,
      "사랑이다": 6634,
      "사랑하기": 6635,
      "세계가": 6636,
      "아카데미로": 6637,
      "아카데미물": 6638,
      "아카데미아": 6639,
      "헌터고": 6640,
      "헌터명가": 6641,
      "에서의": 6642,
      "재벌은": 6643,
      "레이더": 6644,
      "레이서": 6645,
      "환생했는데": 6646,
      "환생하니": 6647,
      "SSR": 6648,
      "SSSS": 6649,
      "기사님": 6650,
      "기사왕": 6651,
      "아포칼립스가": 6652,
      "주인은": 6653,
      "천마와": 6654,
      "결혼하는": 6655,
      "결혼했다": 6656,
      "결혼하기": 6657,
      "결혼할까요": 6658,
      "라이드": 6659,
      "001": 6660,
      "아이스": 6661,
      "무림지존": 6662,
      "무림세가": 6663,
      "연애담": 6664,
      "우리집": 6665,
      "황제와": 6666,
      "능력치": 6667,
      "조선에서": 6668,
      "사는법": 6669,
      "계약서": 6670,
      "계약한": 6671,
      "아들이다": 6672,
      "절대고수": 6673,
      "사냥개": 6674,
      "복수자": 6675,
      "복수한다": 6676,
      "시작했다": 6677,
      "빙의를": 6678,
      "빙의했더니": 6679,
      "바람꽃": 6680,
      "엑스트라의": 6681,
      "비밀스런": 6682,
      "악녀를": 6683,
      "공작부인의": 6684,
      "괴물의": 6685,
      "검사의": 6686,
      "악역은": 6687,
      "위험해": 6688,
      "그리는": 6689,
      "마녀가": 6690,
      "공주의": 6691,
      "인간을": 6692,
      "100만": 6693,
      "100번째": 6694,
      "아니라고": 6695,
      "스킬을": 6696,
      "들어온": 6697,
      "검술천재가": 6698,
      "오늘만": 6699,
      "아이돌이": 6700,
      "각성했다": 6701,
      "이혼을": 6702,
      "우주를": 6703,
      "아빠를": 6704,
      "살인이다": 6705,
      "나쁜놈": 6706,
      "왕자와": 6707,
      "왕자님의": 6708,
      "지구의": 6709,
      "바이트": 6710,
      "대공이": 6711,
      "대공자": 6712,
      "대공자는": 6713,
      "대공님의": 6714,
      "힐러의": 6715,
      "모험기": 6716,
      "짐승이": 6717,
      "사상최강의": 6718,
      "마음의": 6719,
      "너에게만": 6720,
      "비서님": 6721,
      "관계의": 6722,
      "요리의": 6723,
      "101": 6724,
      "포식자의": 6725,
      "12월의": 6726,
      "이번에는": 6727,
      "공략집": 6728,
      "음악이": 6729,
      "필요없다": 6730,
      "선택했다": 6731,
      "수상하다": 6732,
      "로그아웃": 6733,
      "막내아들이": 6734,
      "떨어지는": 6735,
      "마검사가": 6736,
      "성기사가": 6737,
      "성기사로": 6738,
      "상점으로": 6739,
      "조연은": 6740,
      "필드에": 6741,
      "연기에": 6742,
      "된다면": 6743,
      "킬러의": 6744,
      "인류를": 6745,
      "기다려": 6746,
      "대표님의": 6747,
      "신데렐라의": 6748,
      "전남편과": 6749,
      "무기가": 6750,
      "아닌데": 6751,
      "레기온": 6752,
      "환상의": 6753,
      "그날의": 6754,
      "눈에만": 6755,
      "만장자의": 6756,
      "상사화": 6757,
      "아저씨가": 6758,
      "바라는": 6759,
      "지금은": 6760,
      "검성은": 6761,
      "진화하는": 6762,
      "우아하게": 6763,
      "이제야": 6764,
      "무인도": 6765,
      "코인으로": 6766,
      "후궁의": 6767,
      "과거로": 6768,
      "프로듀스": 6769,
      "트리플": 6770,
      "만남을": 6771,
      "가족이": 6772,
      "사도가": 6773,
      "사이버펑크의": 6774,
      "누구에게": 6775,
      "반짝이는": 6776,
      "유물의": 6777,
      "흡혈귀가": 6778,
      "후계자": 6779,
      "망캐가": 6780,
      "검귀가": 6781,
      "때려치고": 6782,
      "너머의": 6783,
      "가르쳐": 6784,
      "기간트": 6785,
      "내일을": 6786,
      "무지개": 6787,
      "약혼자가": 6788,
      "네임드": 6789,
      "멈추지": 6790,
      "육아일기": 6791,
      "편집자": 6792,
      "강탈자": 6793,
      "드릴까요": 6794,
      "시나리오": 6795,
      "여주를": 6796,
      "스타트업": 6797,
      "명문가": 6798,
      "제갈량": 6799,
      "농사짓는": 6800,
      "눈부시게": 6801,
      "시녀님": 6802,
      "플래그": 6803,
      "황혼의": 6804,
      "시즌2": 6805,
      "리미트": 6806,
      "왕세자비": 6807,
      "파라다이스": 6808,
      "사양합니다": 6809,
      "상냥한": 6810,
      "ack": 6811,
      "대처하는": 6812,
      "안드로이드": 6813,
      "물량으로": 6814,
      "셰이크의": 6815,
      "마침내": 6816,
      "유토피아": 6817,
      "디스토피아": 6818,
      "로망스": 6819,
      "부여섭": 6820,
      "스릴러": 6821,
      "정자부터": 6822,
      "측정불가": 6823,
      "태어났습니다": 6824,
      "언터처블": 6825,
      "외과의사": 6826,
      "포이즌": 6827,
      "꼭두각시": 6828,
      "1초": 6829,
      "1호": 6830,
      "1회차": 6831,
      "8서클": 6832,
      "98": 6833,
      "An": 6834,
      "Be": 6835,
      "DE": 6836,
      "DI": 6837,
      "LE": 6838,
      "Mo": 6839,
      "NO": 6840,
      "OL": 6841,
      "ON": 6842,
      "On": 6843,
      "VVIP": 6844,
      "You": 6845,
      "ave": 6846,
      "ame": 6847,
      "ade": 6848,
      "ake": 6849,
      "be": 6850,
      "la": 6851,
      "ow": 6852,
      "per": 6853,
      "um": 6854,
      "가리": 6855,
      "간택": 6856,
      "갈망": 6857,
      "감히": 6858,
      "갑을": 6859,
      "갱생": 6860,
      "건에": 6861,
      "걸다": 6862,
      "검공": 6863,
      "검과": 6864,
      "검도": 6865,
      "검무": 6866,
      "검에": 6867,
      "검이": 6868,
      "검협": 6869,
      "검신의": 6870,
      "겁쟁이": 6871,
      "게으": 6872,
      "결심": 6873,
      "계급": 6874,
      "계모": 6875,
      "고교": 6876,
      "고니": 6877,
      "고도": 6878,
      "고종": 6879,
      "공개": 6880,
      "공룡": 6881,
      "관상": 6882,
      "광의": 6883,
      "괴짜": 6884,
      "교사가": 6885,
      "구멍": 6886,
      "구역": 6887,
      "국제": 6888,
      "굿바이": 6889,
      "궁귀": 6890,
      "궁사": 6891,
      "권마": 6892,
      "그럴": 6893,
      "그럼": 6894,
      "그에게": 6895,
      "그들이": 6896,
      "금빛": 6897,
      "금속": 6898,
      "금태양": 6899,
      "기동": 6900,
      "기숙": 6901,
      "기화": 6902,
      "길동": 6903,
      "깊숙이": 6904,
      "까칠": 6905,
      "깨고": 6906,
      "꼬맹": 6907,
      "꽃집": 6908,
      "끌리": 6909,
      "나옴": 6910,
      "나홀로": 6911,
      "났더니": 6912,
      "내사랑": 6913,
      "냉혈": 6914,
      "너클": 6915,
      "너였다": 6916,
      "노노": 6917,
      "노의": 6918,
      "녹림": 6919,
      "놈은": 6920,
      "농구": 6921,
      "농노": 6922,
      "늙은": 6923,
      "니가": 6924,
      "님께": 6925,
      "다녀": 6926,
      "다울": 6927,
      "달과": 6928,
      "달리는": 6929,
      "답게": 6930,
      "답니다": 6931,
      "당히": 6932,
      "대막": 6933,
      "대에": 6934,
      "대체": 6935,
      "대해": 6936,
      "대작전": 6937,
      "데믹": 6938,
      "데뷔": 6939,
      "데빌": 6940,
      "도제": 6941,
      "독왕": 6942,
      "동네": 6943,
      "동지": 6944,
      "동탁": 6945,
      "동아리": 6946,
      "되던": 6947,
      "되려는": 6948,
      "두리": 6949,
      "두번": 6950,
      "드라이": 6951,
      "등불": 6952,
      "딸을": 6953,
      "떨리는": 6954,
      "램프": 6955,
      "러블리": 6956,
      "레슨": 6957,
      "레볼루션": 6958,
      "련다": 6959,
      "렬하게": 6960,
      "렵니다": 6961,
      "로딩": 6962,
      "롭게": 6963,
      "루트": 6964,
      "루시드": 6965,
      "르기": 6966,
      "르네": 6967,
      "른의": 6968,
      "리기": 6969,
      "리멤버": 6970,
      "링월드": 6971,
      "마누": 6972,
      "마졸": 6973,
      "마주": 6974,
      "마초": 6975,
      "마시는": 6976,
      "막아라": 6977,
      "만인": 6978,
      "맛있는": 6979,
      "망해": 6980,
      "맞다": 6981,
      "매지컬": 6982,
      "맨더": 6983,
      "맨이": 6984,
      "맹수": 6985,
      "먹방": 6986,
      "메르": 6987,
      "메테": 6988,
      "메리지": 6989,
      "명장": 6990,
      "모름": 6991,
      "모바": 6992,
      "모범": 6993,
      "목줄": 6994,
      "목걸이": 6995,
      "몰랐": 6996,
      "몰래": 6997,
      "무시": 6998,
      "무이": 6999,
      "무신이": 7000,
      "무당신": 7001,
      "무능한": 7002,
      "문을": 7003,
      "묻다": 7004,
      "물관": 7005,
      "물다": 7006,
      "물든": 7007,
      "물리치": 7008,
      "바꾼다": 7009,
      "박태": 7010,
      "박물관": 7011,
      "반인": 7012,
      "발의": 7013,
      "발이": 7014,
      "방사": 7015,
      "밭의": 7016,
      "백설": 7017,
      "백호": 7018,
      "백조의": 7019,
      "밴드": 7020,
      "밸런스": 7021,
      "벌어": 7022,
      "법을": 7023,
      "법적": 7024,
      "법이다": 7025,
      "베다": 7026,
      "베어": 7027,
      "베니스의": 7028,
      "벨라": 7029,
      "별빛": 7030,
      "보드": 7031,
      "보세": 7032,
      "보통": 7033,
      "본격": 7034,
      "봅시다": 7035,
      "부인이": 7036,
      "분의": 7037,
      "불능": 7038,
      "불씨": 7039,
      "불을": 7040,
      "불청": 7041,
      "불타는": 7042,
      "불친절한": 7043,
      "불완전한": 7044,
      "비법": 7045,
      "비사": 7046,
      "비익": 7047,
      "비주": 7048,
      "빨이": 7049,
      "뽑으면": 7050,
      "사계": 7051,
      "사관": 7052,
      "사대": 7053,
      "사연": 7054,
      "사체": 7055,
      "사탕": 7056,
      "사장이": 7057,
      "사거리": 7058,
      "삶의": 7059,
      "삼겹": 7060,
      "새긴": 7061,
      "새로": 7062,
      "새기다": 7063,
      "서문": 7064,
      "서방": 7065,
      "서사": 7066,
      "서커": 7067,
      "선검": 7068,
      "설렘": 7069,
      "소속": 7070,
      "소독비": 7071,
      "쇼핑": 7072,
      "수영": 7073,
      "숙한": 7074,
      "순례": 7075,
      "술로": 7076,
      "술탄": 7077,
      "숨찐": 7078,
      "쉬움": 7079,
      "쉬어도": 7080,
      "쉽다": 7081,
      "스무": 7082,
      "스커": 7083,
      "스케": 7084,
      "스텝": 7085,
      "스테이": 7086,
      "슬픔": 7087,
      "시브": 7088,
      "시안": 7089,
      "시청": 7090,
      "신녀": 7091,
      "신창": 7092,
      "심으로": 7093,
      "심심한": 7094,
      "싱어": 7095,
      "싶습니다": 7096,
      "싸울": 7097,
      "쌍룡": 7098,
      "쓰고": 7099,
      "쓰담": 7100,
      "쓸어": 7101,
      "아픔": 7102,
      "아리아": 7103,
      "아레스": 7104,
      "악귀": 7105,
      "않음": 7106,
      "알렌": 7107,
      "알약": 7108,
      "애착": 7109,
      "야누": 7110,
      "약먹는": 7111,
      "양왕": 7112,
      "어플로": 7113,
      "엄청": 7114,
      "에이지": 7115,
      "엑스": 7116,
      "엘라": 7117,
      "엠파이어": 7118,
      "여운": 7119,
      "여의": 7120,
      "여신의": 7121,
      "여신이": 7122,
      "여비서": 7123,
      "역천": 7124,
      "연쇄": 7125,
      "연정": 7126,
      "연희": 7127,
      "열병": 7128,
      "였어": 7129,
      "예능의": 7130,
      "오랜": 7131,
      "오르": 7132,
      "오만": 7133,
      "오문": 7134,
      "오오": 7135,
      "오의": 7136,
      "오후": 7137,
      "왕과": 7138,
      "왕따": 7139,
      "왕가의": 7140,
      "용제": 7141,
      "우로": 7142,
      "우린": 7143,
      "우옌": 7144,
      "우의": 7145,
      "우스의": 7146,
      "운의": 7147,
      "워드": 7148,
      "원스": 7149,
      "원한": 7150,
      "유랑": 7151,
      "유아": 7152,
      "유적": 7153,
      "유전": 7154,
      "은의": 7155,
      "을까": 7156,
      "응우옌": 7157,
      "이도": 7158,
      "이승": 7159,
      "이여": 7160,
      "이와": 7161,
      "인싸": 7162,
      "인재": 7163,
      "인전": 7164,
      "인챈": 7165,
      "인피": 7166,
      "일검": 7167,
      "일대": 7168,
      "일체": 7169,
      "입양": 7170,
      "입자": 7171,
      "자루": 7172,
      "자발": 7173,
      "자작가": 7174,
      "잠행": 7175,
      "잠들지": 7176,
      "잡음": 7177,
      "잡아요": 7178,
      "장가": 7179,
      "재단의": 7180,
      "저녁": 7181,
      "저장": 7182,
      "적과의": 7183,
      "적당히": 7184,
      "전승": 7185,
      "전을": 7186,
      "전의": 7187,
      "전함": 7188,
      "젊은": 7189,
      "정식": 7190,
      "정판": 7191,
      "정한": 7192,
      "조종": 7193,
      "종결자": 7194,
      "주린": 7195,
      "주문": 7196,
      "죽임": 7197,
      "죽어서": 7198,
      "중소기업": 7199,
      "지갑": 7200,
      "지리": 7201,
      "직원": 7202,
      "직진": 7203,
      "직원이": 7204,
      "진입": 7205,
      "진주": 7206,
      "집사로": 7207,
      "찍고": 7208,
      "참지": 7209,
      "찻집": 7210,
      "창궁": 7211,
      "창공의": 7212,
      "채워": 7213,
      "천생": 7214,
      "천공의": 7215,
      "철벽": 7216,
      "첫째": 7217,
      "체고의": 7218,
      "초원의": 7219,
      "추적자": 7220,
      "춤을": 7221,
      "충족": 7222,
      "충무공": 7223,
      "치우": 7224,
      "친다": 7225,
      "카의": 7226,
      "칼의": 7227,
      "커맨더": 7228,
      "컴퍼": 7229,
      "코리안": 7230,
      "코리언": 7231,
      "크란츠": 7232,
      "키코": 7233,
      "타로": 7234,
      "타인의": 7235,
      "탈주": 7236,
      "탑신병": 7237,
      "태자": 7238,
      "터가": 7239,
      "테르": 7240,
      "테스": 7241,
      "템이": 7242,
      "토벌": 7243,
      "투사": 7244,
      "투왕": 7245,
      "투자의": 7246,
      "투성이": 7247,
      "트릭": 7248,
      "틱스": 7249,
      "파도": 7250,
      "파수꾼": 7251,
      "패스트": 7252,
      "팽가": 7253,
      "펀치": 7254,
      "평민": 7255,
      "포기": 7256,
      "포춘": 7257,
      "포효": 7258,
      "퐁당": 7259,
      "품위": 7260,
      "피로": 7261,
      "피아니": 7262,
      "핑크": 7263,
      "하숙": 7264,
      "하의": 7265,
      "하인": 7266,
      "하니까": 7267,
      "학과": 7268,
      "한이": 7269,
      "한반도": 7270,
      "해를": 7271,
      "해주": 7272,
      "해킹": 7273,
      "햇살": 7274,
      "했네": 7275,
      "했을": 7276,
      "했어요": 7277,
      "향한": 7278,
      "현생": 7279,
      "현자의": 7280,
      "호수": 7281,
      "화타": 7282,
      "후손": 7283,
      "후원": 7284,
      "흑마법사가": 7285,
      "히키코": 7286,
      "사랑도": 7287,
      "사랑일": 7288,
      "사랑으로": 7289,
      "사랑받는": 7290,
      "세계로": 7291,
      "마법에": 7292,
      "재벌기": 7293,
      "재벌님": 7294,
      "용사파티": 7295,
      "주인을": 7296,
      "천마왕": 7297,
      "마스터는": 7298,
      "마스터의": 7299,
      "마왕으로": 7300,
      "마왕님은": 7301,
      "외전2": 7302,
      "무림공": 7303,
      "플레이트의": 7304,
      "소설가": 7305,
      "전생했다": 7306,
      "연애는": 7307,
      "사이언": 7308,
      "능력치가": 7309,
      "악마사냥꾼": 7310,
      "멸망급": 7311,
      "멸망하는": 7312,
      "조선에": 7313,
      "배우다": 7314,
      "생존의": 7315,
      "재능은": 7316,
      "그녀만": 7317,
      "시작한다": 7318,
      "빙의하다": 7319,
      "용병단": 7320,
      "하고도": 7321,
      "판타지를": 7322,
      "판타지에": 7323,
      "막내로": 7324,
      "막내공자": 7325,
      "악당들의": 7326,
      "빌런으로": 7327,
      "악녀로": 7328,
      "악녀에게": 7329,
      "정령이": 7330,
      "무적자": 7331,
      "먹는다": 7332,
      "아내는": 7333,
      "아내로": 7334,
      "친구와": 7335,
      "영주는": 7336,
      "기억한다": 7337,
      "10000": 7338,
      "1000000": 7339,
      "아이돌은": 7340,
      "각성으로": 7341,
      "이혼의": 7342,
      "이혼하고": 7343,
      "당신과": 7344,
      "폭군으로": 7345,
      "학교생활": 7346,
      "사람들의": 7347,
      "우주의": 7348,
      "키스는": 7349,
      "현대무림": 7350,
      "운명처럼": 7351,
      "살인마가": 7352,
      "초월의": 7353,
      "초월자의": 7354,
      "초월한다": 7355,
      "이스포츠": 7356,
      "블랙라벨": 7357,
      "왕자를": 7358,
      "성좌는": 7359,
      "특별해야": 7360,
      "늑대들": 7361,
      "늑대와": 7362,
      "ind": 7363,
      "ine": 7364,
      "노래하는": 7365,
      "가지다": 7366,
      "바이올": 7367,
      "대공의": 7368,
      "대공가의": 7369,
      "시스템을": 7370,
      "찾아라": 7371,
      "게이트를": 7372,
      "성장기": 7373,
      "야구는": 7374,
      "어느날": 7375,
      "그림자를": 7376,
      "음악의": 7377,
      "정원의": 7378,
      "데이즈": 7379,
      "어쩌다가": 7380,
      "어쩌다보니": 7381,
      "선택받은": 7382,
      "공녀님의": 7383,
      "영애가": 7384,
      "영애는": 7385,
      "나무꾼": 7386,
      "사라졌다": 7387,
      "성공담": 7388,
      "정의구현": 7389,
      "천하제일인": 7390,
      "천사와": 7391,
      "ord": 7392,
      "ory": 7393,
      "화산파": 7394,
      "겨울의": 7395,
      "테이너": 7396,
      "드라마의": 7397,
      "랭커는": 7398,
      "불꽃처럼": 7399,
      "선생님이": 7400,
      "특성이": 7401,
      "죽지않는": 7402,
      "은퇴가": 7403,
      "황금의": 7404,
      "귀족의": 7405,
      "아가씨의": 7406,
      "마교교주": 7407,
      "종족으로": 7408,
      "얼굴천재": 7409,
      "얼굴천재로": 7410,
      "전남편이": 7411,
      "죽이러": 7412,
      "데스나이트": 7413,
      "불멸자": 7414,
      "달빛이": 7415,
      "독식함": 7416,
      "사용설명서": 7417,
      "아래서": 7418,
      "전투력": 7419,
      "에이터": 7420,
      "다정하게": 7421,
      "행운을": 7422,
      "행운의": 7423,
      "all": 7424,
      "one": 7425,
      "고블린이": 7426,
      "엄마는": 7427,
      "그만두": 7428,
      "격투기": 7429,
      "세이브": 7430,
      "웨딩드레스": 7431,
      "낙원의": 7432,
      "중독자": 7433,
      "알바는": 7434,
      "블루스": 7435,
      "혈통이": 7436,
      "신선이": 7437,
      "사랑한다면": 7438,
      "15권": 7439,
      "주먹의": 7440,
      "주먹으로": 7441,
      "아버지": 7442,
      "제작자": 7443,
      "히로인의": 7444,
      "히로인이": 7445,
      "천마신공": 7446,
      "소꿉친구를": 7447,
      "망캐로": 7448,
      "양아치가": 7449,
      "원수를": 7450,
      "깡패가": 7451,
      "매일매일": 7452,
      "바꾸다": 7453,
      "빼앗긴": 7454,
      "가슴이": 7455,
      "신비한": 7456,
      "첫날에": 7457,
      "보상이": 7458,
      "싫어한다": 7459,
      "싸움을": 7460,
      "전하의": 7461,
      "현질로": 7462,
      "다이아몬드의": 7463,
      "어디까지": 7464,
      "편집자가": 7465,
      "투자자": 7466,
      "네트워크": 7467,
      "리언트": 7468,
      "클라쓰": 7469,
      "Black": 7470,
      "고등학생": 7471,
      "666": 7472,
      "미녀와": 7473,
      "엔터테인": 7474,
      "클로저": 7475,
      "눈부신": 7476,
      "낙하산이": 7477,
      "기행록": 7478,
      "아레나": 7479,
      "하드캐리": 7480,
      "건국기": 7481,
      "수컷의": 7482,
      "씹어먹음": 7483,
      "메카닉": 7484,
      "목표는": 7485,
      "인사동": 7486,
      "가즈나이트": 7487,
      "미연시": 7488,
      "권능으로": 7489,
      "천상계": 7490,
      "글로벌": 7491,
      "등장인물": 7492,
      "뷰티풀": 7493,
      "사채업자": 7494,
      "중고나라": 7495,
      "코스모스": 7496,
      "드워프": 7497,
      "오아시스": 7498,
      "파고드는": 7499,
      "거침없이": 7500,
      "나태한": 7501,
      "순애보": 7502,
      "엉뚱한": 7503,
      "유쾌한": 7504,
      "이기적인": 7505,
      "장르가": 7506,
      "중2병": 7507,
      "컨설턴트": 7508,
      "타투이스트": 7509,
      "게시판": 7510,
      "드려요": 7511,
      "말괄량이": 7512,
      "어차피": 7513,
      "엑소시스트": 7514,
      "여유로운": 7515,
      "인벤토리": 7516,
      "트러블": 7517,
      "누구에게나": 7518,
      "모바일": 7519,
      "물리치료": 7520,
      "불청객": 7521,
      "패스트볼": 7522,
      "피아니스트": 7523,
      "블랙라벨클럽": 7524,
      "엔터테인먼트": 7525,
      "0살부터": 7526,
      "1대": 7527,
      "1렙": 7528,
      "1만": 7529,
      "1번": 7530,
      "1분": 7531,
      "1의": 7532,
      "1서클": 7533,
      "29": 7534,
      "33": 7535,
      "34": 7536,
      "3대": 7537,
      "7번": 7538,
      "90": 7539,
      "92": 7540,
      "AM": 7541,
      "AN": 7542,
      "AP": 7543,
      "Af": 7544,
      "AOS": 7545,
      "Bab": 7546,
      "C급": 7547,
      "DA": 7548,
      "EP": 7549,
      "Ex": 7550,
      "FO": 7551,
      "God": 7552,
      "Kn": 7553,
      "Lo": 7554,
      "RO": 7555,
      "SAL": 7556,
      "TA": 7557,
      "TS": 7558,
      "TY": 7559,
      "ase": 7560,
      "ch": 7561,
      "가득": 7562,
      "가락": 7563,
      "가주가": 7564,
      "가졌다": 7565,
      "간격": 7566,
      "갇히다": 7567,
      "갈래": 7568,
      "감으로": 7569,
      "강속": 7570,
      "강사는": 7571,
      "개똥": 7572,
      "개로": 7573,
      "개천": 7574,
      "개새끼": 7575,
      "갱스터": 7576,
      "거든": 7577,
      "건너": 7578,
      "검가": 7579,
      "검로": 7580,
      "검색": 7581,
      "검우": 7582,
      "검존": 7583,
      "검형": 7584,
      "격리": 7585,
      "결계": 7586,
      "결국": 7587,
      "계곡": 7588,
      "고검": 7589,
      "고딩": 7590,
      "고요": 7591,
      "고자": 7592,
      "고침": 7593,
      "고픈": 7594,
      "곤충": 7595,
      "골대": 7596,
      "곳이": 7597,
      "공동": 7598,
      "공화": 7599,
      "광룡": 7600,
      "광마": 7601,
      "광복": 7602,
      "광시": 7603,
      "광속의": 7604,
      "교관이": 7605,
      "구요": 7606,
      "구조": 7607,
      "구천": 7608,
      "구혼": 7609,
      "구했다": 7610,
      "구하러": 7611,
      "국뽕": 7612,
      "국인": 7613,
      "국정원": 7614,
      "군신": 7615,
      "군왕": 7616,
      "군에서": 7617,
      "군가의": 7618,
      "궁궐": 7619,
      "궁녀": 7620,
      "궁에": 7621,
      "궁의": 7622,
      "권의": 7623,
      "귀화": 7624,
      "그게": 7625,
      "그때": 7626,
      "그랬": 7627,
      "극히": 7628,
      "금요": 7629,
      "긋난": 7630,
      "기린": 7631,
      "기회": 7632,
      "긴다": 7633,
      "깨는": 7634,
      "깬다": 7635,
      "껍데기": 7636,
      "께끼": 7637,
      "꽃비": 7638,
      "꽃에": 7639,
      "꿈에서": 7640,
      "끼리": 7641,
      "나고": 7642,
      "나르": 7643,
      "나스": 7644,
      "나가신다": 7645,
      "난한": 7646,
      "날들": 7647,
      "날뜀": 7648,
      "날먹": 7649,
      "남을": 7650,
      "남장": 7651,
      "남사친": 7652,
      "넘버": 7653,
      "넘쳐": 7654,
      "넣는": 7655,
      "네게": 7656,
      "노처녀": 7657,
      "녹슨": 7658,
      "놈들": 7659,
      "농업": 7660,
      "농사로": 7661,
      "농구의": 7662,
      "뇌가": 7663,
      "뇌절": 7664,
      "누비": 7665,
      "누군가의": 7666,
      "느냐": 7667,
      "다니": 7668,
      "다오": 7669,
      "다음": 7670,
      "다중": 7671,
      "다행": 7672,
      "다차원": 7673,
      "단다": 7674,
      "단단": 7675,
      "당포": 7676,
      "당하는": 7677,
      "닿을": 7678,
      "대당": 7679,
      "대부": 7680,
      "대왕의": 7681,
      "더스트": 7682,
      "도감": 7683,
      "도라": 7684,
      "도쿄": 7685,
      "독서": 7686,
      "독일": 7687,
      "독행": 7688,
      "독자가": 7689,
      "돈에": 7690,
      "동행": 7691,
      "되겠": 7692,
      "되자": 7693,
      "되찾은": 7694,
      "둥둥": 7695,
      "뒤에": 7696,
      "뒤집": 7697,
      "드가": 7698,
      "득템": 7699,
      "든지": 7700,
      "들인": 7701,
      "듯이": 7702,
      "디고": 7703,
      "디네": 7704,
      "떴다": 7705,
      "뚝뚝": 7706,
      "뛰어": 7707,
      "라디": 7708,
      "라비": 7709,
      "라푼": 7710,
      "란의": 7711,
      "랜서": 7712,
      "랜차": 7713,
      "랩소": 7714,
      "러가": 7715,
      "럭키": 7716,
      "레나": 7717,
      "레저": 7718,
      "력을": 7719,
      "련의": 7720,
      "로제": 7721,
      "롭다": 7722,
      "루비": 7723,
      "릅니다": 7724,
      "리나": 7725,
      "리티": 7726,
      "리퍼": 7727,
      "마요": 7728,
      "마협": 7729,
      "마렵다": 7730,
      "막기": 7731,
      "막음": 7732,
      "만났다": 7733,
      "만월의": 7734,
      "많아요": 7735,
      "말랑": 7736,
      "말은": 7737,
      "말리는": 7738,
      "망함": 7739,
      "맞았다": 7740,
      "매국": 7741,
      "매듭": 7742,
      "맥켄": 7743,
      "맨과": 7744,
      "먹을수록": 7745,
      "메가": 7746,
      "메모": 7747,
      "메탈": 7748,
      "멘탈": 7749,
      "멱살": 7750,
      "면역": 7751,
      "명탐정": 7752,
      "모를": 7753,
      "모쏠": 7754,
      "모양": 7755,
      "목적": 7756,
      "못할": 7757,
      "못한다": 7758,
      "무무": 7759,
      "무상": 7760,
      "무장": 7761,
      "무찌": 7762,
      "무혼": 7763,
      "무신의": 7764,
      "무기로": 7765,
      "무사의": 7766,
      "무기를": 7767,
      "무조건": 7768,
      "문신": 7769,
      "물건": 7770,
      "물려": 7771,
      "물을": 7772,
      "뮤지컬": 7773,
      "미네": 7774,
      "미리": 7775,
      "미움": 7776,
      "민간": 7777,
      "믿고": 7778,
      "밀착": 7779,
      "바란다": 7780,
      "박힌": 7781,
      "반해": 7782,
      "발광": 7783,
      "발랄": 7784,
      "밤고양이": 7785,
      "방과": 7786,
      "방문": 7787,
      "방주": 7788,
      "방황": 7789,
      "방정식": 7790,
      "백가": 7791,
      "백만장자의": 7792,
      "뱀의": 7793,
      "버리면": 7794,
      "버서커": 7795,
      "번이면": 7796,
      "벗어": 7797,
      "벙커": 7798,
      "변했다": 7799,
      "별곡": 7800,
      "별들의": 7801,
      "병사가": 7802,
      "보름": 7803,
      "보면": 7804,
      "보컬": 7805,
      "보이의": 7806,
      "복제": 7807,
      "복종": 7808,
      "복학": 7809,
      "본부": 7810,
      "부를": 7811,
      "부름": 7812,
      "부르면": 7813,
      "북쪽": 7814,
      "분다": 7815,
      "불로": 7816,
      "불리": 7817,
      "불명": 7818,
      "불온": 7819,
      "불장난": 7820,
      "비검": 7821,
      "비급": 7822,
      "비어": 7823,
      "비에": 7824,
      "비전": 7825,
      "비트": 7826,
      "비정상": 7827,
      "빠담": 7828,
      "빠지는": 7829,
      "빨고": 7830,
      "사다": 7831,
      "사또": 7832,
      "사를": 7833,
      "사슬": 7834,
      "사야": 7835,
      "사주": 7836,
      "사탄": 7837,
      "산타": 7838,
      "살길": 7839,
      "살벌": 7840,
      "살에": 7841,
      "상곡": 7842,
      "상실": 7843,
      "상이": 7844,
      "생겨": 7845,
      "생애": 7846,
      "생을": 7847,
      "생명의": 7848,
      "섀도우": 7849,
      "서른": 7850,
      "서점": 7851,
      "서자로": 7852,
      "서유기": 7853,
      "선율": 7854,
      "선의": 7855,
      "선협": 7856,
      "선화": 7857,
      "섬에": 7858,
      "성기": 7859,
      "성배": 7860,
      "세다": 7861,
      "세록": 7862,
      "세븐": 7863,
      "소대": 7864,
      "소천": 7865,
      "소시오": 7866,
      "소소한": 7867,
      "손끝에": 7868,
      "손가락": 7869,
      "솔저": 7870,
      "수님": 7871,
      "수다": 7872,
      "수레": 7873,
      "수배": 7874,
      "수확": 7875,
      "순수의": 7876,
      "숨만": 7877,
      "쉬는": 7878,
      "슈가": 7879,
      "슈터": 7880,
      "슈트": 7881,
      "스테": 7882,
      "스팅": 7883,
      "습득": 7884,
      "승리": 7885,
      "시린": 7886,
      "시에": 7887,
      "시장": 7888,
      "시킨": 7889,
      "시노노": 7890,
      "신궁": 7891,
      "신권": 7892,
      "신급": 7893,
      "신문": 7894,
      "신분": 7895,
      "신앙": 7896,
      "신투": 7897,
      "신호": 7898,
      "신으로": 7899,
      "신이다": 7900,
      "신세계의": 7901,
      "신들이": 7902,
      "싣고": 7903,
      "실라의": 7904,
      "실수로": 7905,
      "심연의": 7906,
      "싱크로": 7907,
      "쌓여": 7908,
      "쓰러": 7909,
      "쓸데": 7910,
      "씨앗": 7911,
      "씨의": 7912,
      "아귀": 7913,
      "아머": 7914,
      "아슬": 7915,
      "아트": 7916,
      "아프": 7917,
      "아프리": 7918,
      "아공간": 7919,
      "악동": 7920,
      "악령": 7921,
      "악기의": 7922,
      "않겠다": 7923,
      "알라": 7924,
      "알을": 7925,
      "알아서": 7926,
      "암천": 7927,
      "암행": 7928,
      "압도적": 7929,
      "았던": 7930,
      "앞의": 7931,
      "애사": 7932,
      "애증": 7933,
      "애프터": 7934,
      "앨리스": 7935,
      "약을": 7936,
      "약의": 7937,
      "어가": 7938,
      "어때": 7939,
      "어야": 7940,
      "어울": 7941,
      "어화": 7942,
      "어긋난": 7943,
      "얻은": 7944,
      "없고": 7945,
      "었지만": 7946,
      "여고": 7947,
      "여러": 7948,
      "여기는": 7949,
      "역의": 7950,
      "연소": 7951,
      "연속": 7952,
      "연장": 7953,
      "열제": 7954,
      "열일곱": 7955,
      "예뻤": 7956,
      "예쁘다": 7957,
      "오라": 7958,
      "오를": 7959,
      "오피스": 7960,
      "온달": 7961,
      "올바른": 7962,
      "왕이다": 7963,
      "왕따가": 7964,
      "왜란": 7965,
      "외노": 7966,
      "요람": 7967,
      "용문": 7968,
      "우선": 7969,
      "우코": 7970,
      "우화": 7971,
      "운다": 7972,
      "웁니다": 7973,
      "웃음": 7974,
      "워리어": 7975,
      "원장": 7976,
      "원하": 7977,
      "웠어요": 7978,
      "위반": 7979,
      "위치": 7980,
      "위에서": 7981,
      "윈드": 7982,
      "유닛": 7983,
      "유망": 7984,
      "유비": 7985,
      "유자": 7986,
      "유우코": 7987,
      "윤회": 7988,
      "으니까": 7989,
      "은혜": 7990,
      "의한": 7991,
      "이나": 7992,
      "이란": 7993,
      "이론": 7994,
      "이모": 7995,
      "이벤": 7996,
      "이서": 7997,
      "이신": 7998,
      "이오": 7999,
      "이정": 8000,
      "이현": 8001,
      "인격": 8002,
      "인자": 8003,
      "인칭": 8004,
      "일타": 8005,
      "읽어": 8006,
      "읽지": 8007,
      "임기": 8008,
      "임신": 8009,
      "임진": 8010,
      "입대": 8011,
      "입문": 8012,
      "자매": 8013,
      "자명": 8014,
      "자베": 8015,
      "잡다": 8016,
      "잡화점": 8017,
      "장사": 8018,
      "장수": 8019,
      "장녀의": 8020,
      "재활용": 8021,
      "쟁투": 8022,
      "쟁이의": 8023,
      "저격": 8024,
      "적가": 8025,
      "적룡": 8026,
      "적합자": 8027,
      "전날": 8028,
      "전속": 8029,
      "전신의": 8030,
      "전당포": 8031,
      "절망": 8032,
      "절반의": 8033,
      "정열": 8034,
      "정지": 8035,
      "제목": 8036,
      "제1부": 8037,
      "제멋대로": 8038,
      "조직": 8039,
      "조카": 8040,
      "조합": 8041,
      "존버": 8042,
      "존잘": 8043,
      "종의": 8044,
      "주님": 8045,
      "주연": 8046,
      "죽다": 8047,
      "죽였": 8048,
      "줄래": 8049,
      "중매": 8050,
      "지검": 8051,
      "지대": 8052,
      "지몽": 8053,
      "지부": 8054,
      "지에": 8055,
      "지킬": 8056,
      "지극히": 8057,
      "직한": 8058,
      "진홍": 8059,
      "진위대": 8060,
      "찐따": 8061,
      "차갑": 8062,
      "차라리": 8063,
      "차크라": 8064,
      "착하게": 8065,
      "채널": 8066,
      "책방": 8067,
      "처가": 8068,
      "처형": 8069,
      "척준": 8070,
      "천금": 8071,
      "천월": 8072,
      "천호": 8073,
      "철종": 8074,
      "첩자": 8075,
      "첫사랑을": 8076,
      "청성": 8077,
      "청운": 8078,
      "체의": 8079,
      "초의": 8080,
      "초인의": 8081,
      "초특급": 8082,
      "촉수": 8083,
      "총각": 8084,
      "최연소": 8085,
      "추격자": 8086,
      "춘몽": 8087,
      "취미": 8088,
      "취한": 8089,
      "층의": 8090,
      "치유": 8091,
      "치지": 8092,
      "침입자": 8093,
      "카나": 8094,
      "칸의": 8095,
      "커밍": 8096,
      "커서": 8097,
      "커스터": 8098,
      "컨트롤": 8099,
      "케미": 8100,
      "코미디": 8101,
      "큐브": 8102,
      "크래": 8103,
      "크라이": 8104,
      "크라임": 8105,
      "큰손": 8106,
      "클릭": 8107,
      "클로즈": 8108,
      "키사스": 8109,
      "킬방원": 8110,
      "킹스": 8111,
      "타람": 8112,
      "타르": 8113,
      "타짜": 8114,
      "타자가": 8115,
      "탁의": 8116,
      "탈을": 8117,
      "탑에": 8118,
      "탕탕": 8119,
      "태권": 8120,
      "태왕의": 8121,
      "탤런트": 8122,
      "터스": 8123,
      "텐더": 8124,
      "통각": 8125,
      "통이": 8126,
      "투스": 8127,
      "투신의": 8128,
      "투수의": 8129,
      "트래": 8130,
      "티컬": 8131,
      "파견": 8132,
      "파산": 8133,
      "파크": 8134,
      "패의": 8135,
      "패자": 8136,
      "패황": 8137,
      "패스의": 8138,
      "패왕의": 8139,
      "패시브": 8140,
      "팬티": 8141,
      "팬데믹": 8142,
      "펜타": 8143,
      "평강": 8144,
      "포두": 8145,
      "포스트": 8146,
      "풍경": 8147,
      "퓨전": 8148,
      "프란": 8149,
      "프랜차": 8150,
      "피가": 8151,
      "피폐": 8152,
      "필리아": 8153,
      "하룬": 8154,
      "하리": 8155,
      "하겠다": 8156,
      "하이드": 8157,
      "한강": 8158,
      "한잔": 8159,
      "할래": 8160,
      "할머니": 8161,
      "항상": 8162,
      "해리": 8163,
      "해방": 8164,
      "해빠진": 8165,
      "해양왕": 8166,
      "햇빛": 8167,
      "했으니": 8168,
      "행의": 8169,
      "헤이": 8170,
      "현령": 8171,
      "현자는": 8172,
      "혈의": 8173,
      "협회": 8174,
      "형사의": 8175,
      "호흡": 8176,
      "혼혈": 8177,
      "홍익": 8178,
      "확인": 8179,
      "환장": 8180,
      "회색": 8181,
      "회피": 8182,
      "후배": 8183,
      "흑과": 8184,
      "흑우": 8185,
      "흑룡의": 8186,
      "흔들": 8187,
      "힘스탯": 8188,
      "힘숨찐": 8189,
      "천재작가의": 8190,
      "천재소독비": 8191
    },
    "merges": [
      "었 다",
      "천 재",
      "되 었다",
      "니 다",
      "회 귀",
      "사 랑",
      "세 계",
      "데 미",
      "아 카",
      "아카 데미",
      "헌 터",
      "마 법",
      "에 서",
      "으 로",
      "게 임",
      "재 벌",
      "마법 사",
      "하 는",
      "레 이",
      "살 아",
      "스 트",
      "스 터",
      "환 생",
      "최 강",
      "자 의",
      "용 사",
      "이 세계",
      "귀 환",
      "습 니다",
      "너 무",
      "하 다",
      "S S",
      "한 다",
      "생 활",
      "기 사",
      "립 스",
      "아 포",
      "칼 립스",
      "아포 칼립스",
      "남 자",
      "9 9",
      "주 인",
      "되 다",
      "나 는",
      "작 가",
      "천 마",
      "결 혼",
      "아카데미 의",
      "라 이",
      "마 스터",
      "에 게",
      "마 왕",
      "0 0",
      "외 전",
      "했 다",
      "내 가",
      "스 타",
      "살아 남",
      "혼 자",
      "아 이",
      "무 림",
      "플 레이",
      "자 가",
      "소 설",
      "S 급",
      "돌 아",
      "전 생",
      "연 애",
      "신 의",
      "로 맨",
      "입 니다",
      "이 야",
      "사 이",
      "역 대",
      "나 니",
      "주인 공",
      "플레이 어",
      "던 전",
      "레 벨",
      "망 나니",
      "가 는",
      "역대 급",
      "나 의",
      "세 요",
      "세 상",
      "우 리",
      "인 생",
      "합 니다",
      "황 제",
      "능 력",
      "영 웅",
      "이 다",
      "그 대",
      "다 시",
      "악 마",
      "멸 망",
      "조 선",
      "배 우",
      "이야 기",
      "사 는",
      "생 존",
      "재 능",
      "계 약",
      "그 녀",
      "메 이",
      "삼 국",
      "치 킨",
      "아 들",
      "싶 다",
      "삼국 지",
      "부 터",
      "SS S급",
      "먼 치킨",
      "절 대",
      "없 는",
      "까 지",
      "제 국",
      "무 한",
      "드 래",
      "마 도",
      "신 이",
      "이 계",
      "방 법",
      "강 함",
      "드래 곤",
      "사 가",
      "사 냥",
      "소 드",
      "왔 다",
      "축 구",
      "프 로",
      "전 설",
      "살아남 기",
      "복 수",
      "레벨 업",
      "게 이",
      "자 는",
      "시 작",
      "들 의",
      "번 째",
      "빙 의",
      "용 병",
      "인 물",
      "시 간",
      "하 고",
      "군 주",
      "살아 가는",
      "판 타",
      "하 게",
      "판타 지",
      "막 내",
      "악 당",
      "천재 가",
      "회귀 한",
      "고 인물",
      "여 자",
      "빌 런",
      "세계 의",
      "천 하",
      "연 인",
      "전 기",
      "만 렙",
      "남 편",
      "매 니",
      "유 혹",
      "네 크",
      "바 람",
      "대 한",
      "라이 프",
      "스트 라",
      "엑 스트라",
      "기 로",
      "비 밀",
      "악 녀",
      "정 령",
      "좀 비",
      "차 원",
      "로맨 서",
      "네크 로맨서",
      "공 작",
      "미 래",
      "괴 물",
      "들 이",
      "신 부",
      "않 는",
      "나 만",
      "전 쟁",
      "강 해",
      "검 사",
      "소 환",
      "스 의",
      "무 적",
      "되 어",
      "더 니",
      "사냥 꾼",
      "먹 는",
      "시 대",
      "나 를",
      "하 여",
      "검 은",
      "아 내",
      "살아남 는",
      "악 역",
      "아포칼립스 의",
      "친 구",
      "최강 의",
      "돌아 왔다",
      "달 콤",
      "없 다",
      "영 주",
      "파 이",
      "기 억",
      "나 이",
      "너 를",
      "위 험",
      "그 리",
      "대 마법사",
      "마 녀",
      "공 주",
      "렸 다",
      "인 간",
      "매니 저",
      "1 00",
      "아 니",
      "드 의",
      "보 니",
      "스 킬",
      "있 다",
      "지 만",
      "사 의",
      "심 장",
      "들 어",
      "미 친",
      "99 99",
      "가 의",
      "사랑 의",
      "소드 마스터",
      "회귀 자",
      "검 술",
      "러 브",
      "오 늘",
      "아이 돌",
      "각 성",
      "었 습니다",
      "인 데",
      "살 고",
      "어 로",
      "는 데",
      "소 녀",
      "주인공 이",
      "신 화",
      "이 혼",
      "님 의",
      "당 신",
      "폭 군",
      "학 교",
      "리 는",
      "무 공",
      "사 람",
      "오 브",
      "우 주",
      "함 께",
      "가 다",
      "아 빠",
      "멸망 한",
      "위험 한",
      "지 옥",
      "키 스",
      "가 문",
      "나 라",
      "현 대",
      "히 어로",
      "그 림",
      "로 드",
      "리 스",
      "주 세요",
      "운 명",
      "제 일",
      "돌아 온",
      "v e",
      "살 인",
      "월 드",
      "로맨 스",
      "게이 머",
      "붉 은",
      "산 다",
      "술 사",
      "엔 딩",
      "초 월",
      "했 더니",
      "마 지",
      "빨 로",
      "수 가",
      "이 스",
      "해 서",
      "버 렸다",
      "시 스",
      "역 전",
      "장 이",
      "겠 습니다",
      "보 스",
      "블 랙",
      "이 상",
      "회 차",
      "작가 의",
      "왕 의",
      "토 리",
      "나 쁜",
      "몬 스터",
      "강 호",
      "너 의",
      "마 이",
      "구 원",
      "속 의",
      "생 이",
      "잘 함",
      "하 지",
      "2 0",
      "사랑 을",
      "마지 막",
      "르 는",
      "리 아",
      "슈 퍼",
      "왕 자",
      "정 복",
      "지 구",
      "지 는",
      "성 좌",
      "숨 김",
      "이 라",
      "이 유",
      "종 말",
      "E X",
      "여 행",
      "하 라",
      "같 은",
      "주 의",
      "특 별",
      "하 기",
      "메이 커",
      "늑 대",
      "되 는",
      "스 캔",
      "어 요",
      "인 의",
      "헌터 가",
      "양 이",
      "처 럼",
      "스캔 들",
      "i n",
      "님 은",
      "보 는",
      "전 직",
      "노 래",
      "무 사",
      "시 한",
      "가 지",
      "바 이",
      "았 다",
      "인 이",
      "달콤 한",
      "거 짓",
      "도 시",
      "위 한",
      "재벌 가",
      "황제 의",
      "능력 자",
      "기 적",
      "남 자의",
      "대 공",
      "되 었습니다",
      "였 다",
      "죽 음",
      "힐 러",
      "혼자 만",
      "h e",
      "니 까",
      "립 니다",
      "머 리",
      "모 험",
      "방 송",
      "짐 승",
      "최 고",
      "황 후",
      "환생 한",
      "시스 템",
      "님 이",
      "사 상",
      "세 기",
      "쓰 는",
      "위 하여",
      "어 서",
      "회귀 자의",
      "대 기",
      "마 음",
      "일 기",
      "파이 어",
      "EX 급",
      "보 여",
      "찾 아",
      "너 에게",
      "대 로",
      "보 다",
      "비 서",
      "지 존",
      "집 착",
      "게이 트",
      "관 계",
      "성 장",
      "야 구",
      "수 의",
      "어 쩌",
      "톱 스타",
      "레이 디",
      "검 신",
      "고 양이",
      "드 립니다",
      "사 로",
      "어 느",
      "요 리",
      "1 0",
      "대 륙",
      "좋 아",
      "처 음",
      "포 식",
      "다 운",
      "그림 자",
      "시한 부",
      "1 2",
      "o ve",
      "간 다",
      "겠 다",
      "공 자",
      "만 능",
      "완 벽",
      "이 번",
      "현 실",
      "사랑 이",
      "기로 운",
      "장 의",
      "그리 고",
      "사 기",
      "지 배",
      "하 늘",
      "천재 의",
      "마법사 의",
      "레이 드",
      "2 1",
      "공 략",
      "은 밀",
      "음 악",
      "이 름",
      "정 원",
      "않는 다",
      "명 가",
      "상 태",
      "어 먹",
      "전 사",
      "제 왕",
      "완벽 한",
      "1 9",
      "까 요",
      "단 편",
      "대 장",
      "데 이",
      "리 즈",
      "리 턴",
      "사 신",
      "사 원",
      "우 는",
      "일 지",
      "흑 막",
      "마도 사",
      "거짓 말",
      "어쩌 다",
      "고 백",
      "기 를",
      "노 예",
      "만 나",
      "주 가",
      "캐 릭",
      "필 요",
      "용사 가",
      "생존 기",
      "은밀 한",
      "F 급",
      "가 짜",
      "다 크",
      "당 신의",
      "로 운",
      "이 는",
      "회귀 하다",
      "나이 트",
      "소 리",
      "있 는",
      "적 인",
      "아카데미 에서",
      "e r",
      "귀 신",
      "버 린",
      "선 택",
      "슬 기로운",
      "여 름",
      "태 양",
      "태 어",
      "했 습니다",
      "인생 역전",
      "가문 의",
      "2 회차",
      "공 녀",
      "는 다",
      "으 면",
      "상태 창",
      "수 호",
      "알 고",
      "영 애",
      "오 빠",
      "싶 어",
      "연 대기",
      "재벌 집",
      "꿈 꾸",
      "밤 의",
      "세 가",
      "수 상",
      "위 의",
      "이 지",
      "행 복",
      "가 면",
      "신 입",
      "마왕 이",
      "캐릭 터",
      "국 의",
      "나 무",
      "내 게",
      "른 다",
      "리 스트",
      "사 라",
      "소 년",
      "아 가",
      "아 름",
      "여 왕",
      "장 님",
      "제 로",
      "타 임",
      "하 나",
      "마법사 가",
      "제국 의",
      "시작 하는",
      "길 들이",
      "로 그",
      "백 작가",
      "성 공",
      "죽 여",
      "펑 크",
      "사랑 은",
      "헌터 의",
      "스트 라이",
      "그녀 의",
      "감 독",
      "드 는",
      "무 당",
      "생 은",
      "연 예",
      "정 의",
      "최 종",
      "투 수",
      "막내 아들",
      "천하 제일",
      "그 라",
      "떨 어",
      "마 신",
      "만 에",
      "뱀 파이어",
      "암 살",
      "저 승",
      "용사 는",
      "프로 게이머",
      "s s",
      "기 갑",
      "바 다",
      "에 는",
      "운 드",
      "자 로",
      "천 사",
      "황 태",
      "게임 의",
      "용사 의",
      "P C",
      "o r",
      "그 룹",
      "닥 터",
      "서 울",
      "시 리즈",
      "안 에",
      "장 미",
      "탑 스타",
      "학 원",
      "해 피",
      "귀환 자",
      "N PC",
      "공 무",
      "그 의",
      "꾼 다",
      "되 기",
      "마 검",
      "성 기사",
      "속 으로",
      "여 우",
      "유 일",
      "치 는",
      "평 범",
      "하 면",
      "화 산",
      "2 부",
      "강 철",
      "겨 울",
      "랜 드",
      "받 은",
      "부 부",
      "서 클",
      "아 찔",
      "전 드",
      "테 이",
      "하 루",
      "했 는데",
      "오늘 도",
      "걸 그룹",
      "그 래",
      "나 비",
      "드 라",
      "망 겜",
      "모 든",
      "사 건",
      "사 내",
      "상 점",
      "성 의",
      "신 다",
      "싶 은",
      "연 금",
      "조 연",
      "주 는",
      "클 래",
      "피 아",
      "필 드",
      "황 녀",
      "공 작가",
      "랭 커",
      "방 랑",
      "불 꽃",
      "사 제",
      "선 생",
      "연 기",
      "위 대한",
      "키 운",
      "특 성",
      "필 드의",
      "후 의",
      "세계 에서",
      "세상 을",
      "ove l",
      "T he",
      "성 녀",
      "수 저",
      "우 스",
      "죽 지",
      "튜 토리",
      "이세계 에서",
      "세상 의",
      "대한 민",
      "포식 자",
      "아름 다운",
      "튜토리 얼",
      "고 려",
      "영 원",
      "왕 이",
      "은 퇴",
      "지 다",
      "탄 생",
      "황 금",
      "스트라이 커",
      "N ovel",
      "과 의",
      "다 른",
      "된 다",
      "사 자",
      "없 이",
      "킬 러",
      "파 트",
      "재벌 이",
      "마왕 의",
      "배우 님",
      "강 림",
      "레 전드",
      "몰 락",
      "무 신",
      "보 고",
      "이 드",
      "조 건",
      "크 리스",
      "탐 정",
      "해 결",
      "홀 로",
      "헌터 는",
      "최고 의",
      "21 세기",
      "어먹 을",
      "3 세",
      "a r",
      "개 의",
      "고 수",
      "귀 족",
      "네 가",
      "도 련",
      "동 거",
      "새 벽",
      "속 에",
      "아 라",
      "영 혼",
      "인 류",
      "제 자",
      "펙 트",
      "하 세요",
      "아카데미 에",
      "전설 의",
      "아빠 가",
      "아가 씨",
      "다 이",
      "들 다",
      "렐 라",
      "로 스",
      "마 교",
      "만 의",
      "악 의",
      "안 의",
      "종 족",
      "진 다",
      "미래 를",
      "대한민 국",
      "기 다",
      "대 표",
      "데 렐라",
      "라 고",
      "마 나",
      "망 한",
      "미 치",
      "신 데렐라",
      "아 기",
      "안 녕",
      "얼 굴",
      "잡 는",
      "졌 다",
      "퍼 펙트",
      "기사 가",
      "망나니 가",
      "악마 의",
      "수상 한",
      "뉴 비",
      "무 협",
      "블 러",
      "시 다",
      "에 이스",
      "전 남편",
      "젝 트",
      "죽 이",
      "진 짜",
      "퇴 마",
      "패 왕",
      "푸 른",
      "힘 을",
      "프로 젝트",
      "거 운",
      "게 요",
      "대 전",
      "데 스",
      "명 의",
      "법 칙",
      "베 이",
      "부 활",
      "빌 어먹을",
      "순 간",
      "신 을",
      "욕 망",
      "웠 다",
      "위 해",
      "인 형",
      "주 식",
      "탈 출",
      "프 리",
      "흑 마법사",
      "흡 수",
      "회귀 했다",
      "회귀 해서",
      "사랑 하는",
      "99 9",
      "특별 한",
      "클래 스",
      "크리스 마",
      "가 장",
      "로 또",
      "리 의",
      "무 기",
      "백 작",
      "불 멸",
      "아 닌",
      "이 의",
      "첫 사랑",
      "탑 을",
      "귀환 한",
      "악당 이",
      "기적 의",
      "공무 원",
      "s t",
      "꿈 꾼다",
      "달 빛",
      "레 기",
      "먼 트",
      "버 스",
      "브 레이",
      "블 린",
      "사 위",
      "사 정",
      "식 당",
      "아 르",
      "오 다",
      "용 의",
      "자 들",
      "집 에",
      "치 트",
      "파 티",
      "향 기",
      "환 상",
      "사이 버",
      "그대 를",
      "아찔 한",
      "1 1",
      "검 을",
      "났 다",
      "독 식",
      "두 근",
      "래 요",
      "먹 고",
      "사 용",
      "스 탯",
      "스 페",
      "시 점",
      "아 래",
      "아 저",
      "이 었다",
      "재 앙",
      "저 주",
      "죽 어",
      "진 실",
      "카 드",
      "퀘 스트",
      "스트 리",
      "빌런 이",
      "공작 님",
      "관 리",
      "동 화",
      "리 치",
      "만 들",
      "변 호",
      "불 사",
      "속 에서",
      "와 의",
      "월 의",
      "이 중",
      "전 투",
      "정 벌",
      "천 년",
      "클 럽",
      "폭 풍",
      "풍 운",
      "하 룻",
      "하 트",
      "해 요",
      "이세계 의",
      "입니다 만",
      "황제 가",
      "모험 가",
      "그 날",
      "눈 에",
      "레 스",
      "만 장",
      "벼 락",
      "상 사",
      "셰 프",
      "에 이",
      "연 하",
      "영 화",
      "운 드의",
      "작 전",
      "하 얀",
      "흡 혈",
      "고인물 이",
      "바람 의",
      "유일 한",
      "아저 씨",
      "1 부",
      "가 고",
      "대 마도사",
      "떠 보니",
      "리 셋",
      "리 어",
      "바 라",
      "상 인",
      "오 크",
      "재 다",
      "지 금",
      "탑 의",
      "피 어",
      "하 이",
      "학 사",
      "후 회",
      "히 든",
      "회귀 로",
      "복수 를",
      "악녀 는",
      "정령 사",
      "갑 니다",
      "검 성",
      "군 단",
      "나 요",
      "노 블",
      "니 스",
      "다 정",
      "도 둑",
      "동 생이",
      "미 스터",
      "사 나이",
      "시 크",
      "않 아",
      "엘 프",
      "여 인",
      "왕 국",
      "작 은",
      "전 지",
      "진 화",
      "카 르",
      "통 령",
      "행 운",
      "우리 는",
      "영웅 이",
      "그대 에게",
      "9999 9999",
      "지배 자",
      "대장 장이",
      "a l",
      "a n",
      "o n",
      "고 블린",
      "남 궁",
      "다 재다",
      "되 고",
      "들 려",
      "라 인",
      "리 얼",
      "목 소리",
      "백 서",
      "백 수",
      "삼 류",
      "선 물",
      "소 림",
      "슬 레이",
      "아 의",
      "어 린",
      "엄 마",
      "우 아",
      "이 제",
      "자 비",
      "학 생",
      "시간 을",
      "꿈꾸 는",
      "스트리 머",
      "다재다 능",
      "m e",
      "그 만",
      "남 주",
      "눈 물",
      "달 의",
      "대 가",
      "둥 이",
      "딸 이",
      "라 도",
      "마 검사",
      "만 든",
      "무 인",
      "밤 에",
      "불 순",
      "어 떤",
      "오 세요",
      "이 웃",
      "인 연",
      "죽 은",
      "코 인",
      "폐 하",
      "프 린",
      "회귀 했더니",
      "악마 가",
      "폭군 의",
      "만나 다",
      "격 투",
      "당 한",
      "도 록",
      "세 이",
      "소 원",
      "순 정",
      "신 들의",
      "야 만",
      "없 어",
      "왔 습니다",
      "웨 딩",
      "잡 이",
      "제 가",
      "지 의",
      "트 롤",
      "힐 링",
      "귀환 자의",
      "나만 의",
      "되어 버렸다",
      "검은 머리",
      "파트 너",
      "크리스마 스",
      "슬레이 어",
      "0 년",
      "계 승",
      "깨 어",
      "낙 원",
      "너 는",
      "대 리",
      "됐 다",
      "라 의",
      "라 임",
      "마 력",
      "만 화",
      "말 고",
      "무 쌍",
      "별 을",
      "사 막",
      "아 는",
      "애 인",
      "역 사",
      "중 독",
      "청 혼",
      "취 향",
      "파 괴",
      "회 사",
      "천재 는",
      "회귀 자는",
      "사랑 할",
      "메이 지",
      "각성 자",
      "시크 릿",
      "불순 한",
      "감 정",
      "거 나",
      "깨 비",
      "도 깨비",
      "드 림",
      "레 드",
      "레 인",
      "로 즈",
      "룡 의",
      "마 계",
      "마 세요",
      "못 된",
      "미 스",
      "배 틀",
      "불 가",
      "사 령",
      "사 형",
      "소 울",
      "수 로",
      "수 록",
      "스 토",
      "시 드",
      "알 바",
      "어 둠",
      "어 리",
      "연 가",
      "쟁 이",
      "주 웠다",
      "치 다",
      "키 우는",
      "패 스",
      "한 번",
      "해 야",
      "후 궁",
      "용사 를",
      "천마 님",
      "마왕 은",
      "길들이 기",
      "평범 한",
      "해결 사",
      "개 발",
      "공 의",
      "공 작가의",
      "과 거",
      "귀 여",
      "끝 에",
      "노 벨",
      "마 의",
      "블 루",
      "사 회",
      "스 토리",
      "아 무",
      "어 라",
      "요 괴",
      "이 면",
      "읽 는",
      "줄 게",
      "착 한",
      "철 혈",
      "하 니",
      "학 자",
      "혈 통",
      "세계 최강",
      "마법 을",
      "프로 듀",
      "빙의 했다",
      "강해 져",
      "이상 하다",
      "구원 자",
      "연예 계",
      "전지 적",
      "1 8",
      "S e",
      "검 제",
      "것 이",
      "남 은",
      "당 신이",
      "대 통령",
      "뜨 거운",
      "라 벨",
      "약 속",
      "어 버린",
      "자 리",
      "질 풍",
      "트 로",
      "트 리",
      "폐 급",
      "혁 명",
      "회귀 자가",
      "사랑 에",
      "용사 님",
      "천마 는",
      "조선 의",
      "무한 성장",
      "이계 에서",
      "빌런 의",
      "이상 한",
      "3 0",
      "가 드",
      "가 진",
      "기 는",
      "등 급",
      "라 스트",
      "르 다",
      "모 르는",
      "미 궁",
      "발 칙",
      "신 선",
      "아 요",
      "얼 음",
      "에 겐",
      "외 계",
      "이 방",
      "일 곱",
      "일 상",
      "지 독",
      "지 션",
      "지 먼트",
      "추 억",
      "카 페",
      "타 이",
      "한 국",
      "세계 를",
      "환생 하다",
      "환생 했다",
      "그녀 를",
      "악당 의",
      "남편 이",
      "엑스트라 가",
      "공작 의",
      "죽음 을",
      "마음 을",
      "B J",
      "가 시",
      "개 론",
      "경 험",
      "길 들",
      "꽃 이",
      "꿈 을",
      "대 신",
      "도 사",
      "리 면",
      "마 인",
      "만 남",
      "바 보",
      "보 이",
      "뽑 기",
      "선 수",
      "수 집",
      "신 과",
      "아 내가",
      "엘 리",
      "있 습니다",
      "지 켜",
      "캐 리",
      "키 워",
      "품 은",
      "하 겠습니다",
      "후 예",
      "사랑 한다",
      "천마 의",
      "결혼 의",
      "강해 지는",
      "살고 싶다",
      "지옥 에서",
      "변호 사",
      "1 5",
      "e d",
      "가 족",
      "기 생",
      "기 연",
      "데 드",
      "라 는",
      "리 지",
      "반 려",
      "사 도",
      "사 무",
      "서 자의",
      "서 바이",
      "소 유",
      "약 혼",
      "육 성",
      "일 의",
      "주 먹",
      "집 사",
      "초 인",
      "축 복",
      "특 급",
      "사랑 해",
      "기사 의",
      "돌아 오다",
      "빙의 함",
      "매니 지먼트",
      "악역 이",
      "학교 의",
      "운명 의",
      "초월 자",
      "슈퍼 스타",
      "블러 드",
      "사이버 펑크",
      "이중 생활",
      "하룻 밤",
      "이방 인",
      "A I",
      "가 기",
      "가 을",
      "강 화",
      "납 치",
      "놈 이",
      "누 구",
      "단 의",
      "동 생",
      "디 어",
      "레 시",
      "마 귀",
      "마 술",
      "마 제",
      "만 들어",
      "반 짝",
      "부 인",
      "소 꿉",
      "아 버",
      "유 물",
      "직 업",
      "천 만",
      "초 능력",
      "출 근",
      "키 우",
      "파 일",
      "하 우스",
      "혈 마",
      "로맨 틱",
      "주인공 을",
      "주인공 의",
      "절대 자",
      "악녀 의",
      "영주 님",
      "흡혈 귀",
      "발칙 한",
      "1 3",
      "r e",
      "가 상",
      "계 절",
      "골 드",
      "기 업",
      "남 이",
      "녀 의",
      "대 박",
      "도 의",
      "린 다",
      "매 직",
      "보 자",
      "부 탁",
      "빠 진",
      "상 의",
      "생 겼",
      "신 마",
      "싫 다",
      "아 니다",
      "알 았",
      "오 리",
      "올 라",
      "이 런",
      "인 트",
      "제 작",
      "직 장",
      "창 조",
      "타 는",
      "해 골",
      "히 로",
      "이세계 로",
      "이세계 에",
      "천마 신",
      "재능 을",
      "그녀 는",
      "아들 이",
      "절대 자의",
      "마녀 의",
      "사로 잡",
      "해피 엔딩",
      "강철 의",
      "브레이 커",
      "우아 한",
      "l e",
      "계 속",
      "고 의",
      "관 의",
      "교 수",
      "교 육",
      "구 름",
      "길 드",
      "남 의",
      "능 의",
      "들 을",
      "디 언",
      "라 면",
      "러 운",
      "리 다",
      "리 안",
      "마 을",
      "막 장",
      "맞 은",
      "명 가의",
      "받 는",
      "살 다",
      "살 겠다",
      "새 끼",
      "신 혼",
      "아 웃",
      "않 은",
      "오 르는",
      "이 별",
      "인 다",
      "전 에",
      "죽 었다",
      "지 상",
      "찾 기",
      "치 가",
      "후 계",
      "주인 이",
      "우리 가",
      "드래곤 의",
      "강해 진다",
      "기억 을",
      "대마법사 의",
      "심장 을",
      "영애 의",
      "사라 진",
      "드라 마",
      "연금 술사",
      "목소리 가",
      "소꿉 친구",
      "1 등",
      "a t",
      "갑 질",
      "거 울",
      "공 포",
      "괜 찮",
      "군 림",
      "까 마귀",
      "눈 을",
      "도 망",
      "도 적",
      "뜨 겁",
      "랜 덤",
      "마 트",
      "마 운드의",
      "만 드는",
      "망 캐",
      "매 혹",
      "먹 음",
      "모 두",
      "무 명",
      "반 지",
      "받 고",
      "백 작가의",
      "불 량",
      "빼 고",
      "살 자",
      "상 속",
      "수 라",
      "스 카",
      "슬 라임",
      "습 니까",
      "야 수",
      "양 아",
      "예 언",
      "왕 비",
      "원 수",
      "자 살",
      "조 각",
      "지 컬",
      "최 약",
      "키 다",
      "펜 스",
      "피 는",
      "할 까요",
      "회 사원",
      "후 작가",
      "흙 수저",
      "스트 로",
      "00 00",
      "아이 템",
      "전생 자",
      "던전 에서",
      "세상 이",
      "배우 의",
      "소환 사",
      "당신 을",
      "in g",
      "최종 보스",
      "불멸 의",
      "프로듀 서",
      "서바이 벌",
      "레시 피",
      "강 하다",
      "검 귀",
      "그 를",
      "그 린",
      "그 랜드",
      "기 계",
      "깡 패",
      "나 에게",
      "나 혼자",
      "너 와",
      "데 요",
      "도 르",
      "때 려",
      "렇 게",
      "마 운드",
      "물 이",
      "버 렸",
      "법 사",
      "병 기",
      "뽑 기로",
      "사 생활",
      "세 스",
      "소 나",
      "시 오",
      "쓰 레기",
      "아 몬",
      "연 습",
      "원 한다",
      "유 리",
      "입 술",
      "작 곡",
      "장 난",
      "전 략",
      "좋 은",
      "죽 고",
      "중 입니다",
      "찬 란",
      "크 로",
      "크 리",
      "탱 커",
      "편 의",
      "히 다",
      "게임 으로",
      "귀환 하다",
      "귀환 했다",
      "생활 백서",
      "천마 가",
      "드래곤 이",
      "아내 의",
      "검술 천재",
      "캐릭터 가",
      "그라 운드",
      "대표 님",
      "정벌 기",
      "시드 노벨",
      "Se ed",
      "1 4",
      "1 위",
      "o u",
      "가 요",
      "거 래",
      "경 영",
      "고 구",
      "그 들",
      "기 담",
      "꽃 을",
      "남 주가",
      "내 리는",
      "녀 석",
      "다 섯",
      "도 서",
      "돈 의",
      "만 년",
      "만 한",
      "매 일",
      "바 꾸",
      "배 달",
      "버 려",
      "번 의",
      "변 신",
      "비 상",
      "빼 앗",
      "스 크",
      "영 지",
      "요 원",
      "유 령",
      "이 크",
      "있 어",
      "자 기",
      "잡 아",
      "재 림",
      "전 한",
      "정 석",
      "커 피",
      "테 스트",
      "포 즈",
      "하 러",
      "한 의",
      "천재 로",
      "재벌 의",
      "마법사 는",
      "최강 자",
      "아이 들",
      "사이 코",
      "축구 천재",
      "전설 이",
      "네크로맨서 가",
      "강해 짐",
      "악역 의",
      "친구 의",
      "100 0",
      "신화 급",
      "함께 하는",
      "사기 꾼",
      "태어 난",
      "프린 세스",
      "생겼 다",
      "가 슴",
      "게 인",
      "경 계",
      "골 든",
      "관 이",
      "교 주",
      "구 석",
      "구 애",
      "금 지",
      "나 도",
      "낯 선",
      "너 머",
      "누 나",
      "동 물",
      "려 라",
      "로 열",
      "많 다",
      "모 음",
      "미 드",
      "미 쳐",
      "방 의",
      "부 의",
      "수 사",
      "스 러운",
      "신 비",
      "아 침",
      "암 흑",
      "오 버",
      "오 스",
      "우 연",
      "인 지",
      "입 학",
      "잔 인",
      "잘 한다",
      "적 응",
      "정 점",
      "천 의",
      "초 능력자",
      "최 초",
      "코 드",
      "투 수가",
      "팔 이",
      "포 인트",
      "품 격",
      "품 다",
      "해 도",
      "해 적",
      "형 사",
      "회귀 함",
      "게임 에서",
      "소설 의",
      "세상 에서",
      "능력 을",
      "악마 는",
      "악당 은",
      "나만 이",
      "사냥꾼 이",
      "공주 님",
      "인간 이",
      "오늘 부터",
      "왕자 님",
      "알고 보니",
      "신입 사원",
      "암살 자",
      "베이 비",
      "만장 자",
      "2 권",
      "P D",
      "가 가",
      "가 디언",
      "거 절",
      "검 마",
      "것 은",
      "경 찰",
      "계 획",
      "괴 수",
      "깽 판",
      "나 노",
      "남 녀",
      "낭 인",
      "디 펜스",
      "로 마",
      "머 니",
      "무 정",
      "문 제",
      "반 란",
      "빠 는",
      "서 생",
      "신 병",
      "실 험",
      "싸 이",
      "않 았다",
      "언 더",
      "여 자의",
      "열 정",
      "영 업",
      "예 술",
      "오 해",
      "우 가",
      "이 단",
      "이 사",
      "재 회",
      "저 리",
      "전 사가",
      "절 한",
      "좋 다",
      "짝 사랑",
      "첫 날",
      "트 의",
      "프 러",
      "한 테",
      "황 의",
      "천재 마법사",
      "헌터 생활",
      "기사 로",
      "무림 에",
      "악마 를",
      "조선 을",
      "메이 드",
      "먼치킨 의",
      "복수 의",
      "천하 를",
      "달콤 하게",
      "태양 의",
      "로그 인",
      "사막 의",
      "귀여 운",
      "가 르",
      "가 정",
      "감 평",
      "거 리",
      "거 부",
      "검 의",
      "고 스트",
      "귀 한",
      "금 수저",
      "기 간",
      "내 겐",
      "내 일",
      "달 이",
      "독 자",
      "돈 을",
      "랑 이",
      "마 라",
      "묘 한",
      "무 지",
      "방 구석",
      "별 이",
      "보 상",
      "부 자",
      "빛 나는",
      "사 실",
      "생 의",
      "셨 다",
      "스 티",
      "시 체",
      "싫 어",
      "싸 움",
      "아 리",
      "아 직",
      "애 완",
      "약 혼자",
      "어 게인",
      "언 데드",
      "오 는",
      "오 른다",
      "온 다",
      "올 마스터",
      "유 희",
      "이 동",
      "잃 어버린",
      "전 하",
      "제 의",
      "죽 이는",
      "중 원",
      "초 대",
      "토 끼",
      "폭 발",
      "학 개론",
      "할 게요",
      "행 성",
      "현 질",
      "화 려",
      "희 망",
      "사랑 한",
      "재벌 되다",
      "무림 맹",
      "악마 와",
      "메이 트",
      "이계 로",
      "악녀 가",
      "지구 를",
      "늑대 의",
      "도시 의",
      "죽음 의",
      "수호 자",
      "저승 사자",
      "연금 술",
      "다이 아몬",
      "뜨겁 게",
      "도서 관",
      "3 권",
      "9 서클",
      "같 이",
      "건 물",
      "공 간",
      "그 냥",
      "금 강",
      "기 가",
      "기 록",
      "깊 은",
      "나 와",
      "날 개",
      "네 임",
      "누 가",
      "니 아",
      "다 가",
      "달 라",
      "대 하여",
      "독 재",
      "독 점",
      "들 린",
      "딸 은",
      "라 서",
      "렵 다",
      "마 족",
      "만 이",
      "멈 추",
      "메 리",
      "못 한",
      "뮤 지션",
      "미 소",
      "밖 의",
      "버 림",
      "벌 레",
      "부 로",
      "빛 의",
      "사 진",
      "서 자",
      "선 배",
      "스 켈",
      "스 마트",
      "시 록",
      "시 아",
      "시 티",
      "신 검",
      "어 도",
      "어 디",
      "언 제",
      "얻 다",
      "었 던",
      "여 포",
      "옆 집",
      "오 직",
      "온 라인",
      "위 에",
      "유 산",
      "육 아",
      "인 공",
      "인 을",
      "있 을",
      "자 꾸",
      "적 으로",
      "전 장의",
      "제 자가",
      "중 세",
      "지 능",
      "지 키",
      "청 춘",
      "투 명",
      "페 러",
      "편 집",
      "플 라",
      "하 렘",
      "항 해",
      "현 자",
      "세계 에",
      "세계 정복",
      "게임 속",
      "게임 에",
      "환생 했더니",
      "작가 님",
      "결혼 을",
      "영웅 은",
      "영웅 의",
      "시간 의",
      "유혹 의",
      "영주 가",
      "매니저 가",
      "심장 이",
      "요리 사",
      "단편 집",
      "필요 해",
      "길들이 는",
      "황태 자의",
      "몰락 한",
      "두근 두근",
      "스페 셜",
      "재앙 급",
      "남궁 세가",
      "괜찮 아",
      "1 7",
      "7 7",
      "F F",
      "t he",
      "가 출",
      "강 남",
      "강 한",
      "경 이",
      "나 잇",
      "낙 제",
      "내 린",
      "넘 어",
      "노 력",
      "레 톤",
      "롱 도르",
      "룡 이",
      "머 신",
      "못 하는",
      "무 제",
      "문 명",
      "물 고",
      "밖 에",
      "발 롱도르",
      "배 신",
      "범 죄",
      "베 타",
      "살 수",
      "생 각",
      "세 자",
      "소 서",
      "수 련",
      "순 결",
      "스 런",
      "스 파이",
      "신 은",
      "아 티",
      "았 습니다",
      "엠 페러",
      "여 친",
      "오 즈",
      "위 대",
      "있 었다",
      "재 생",
      "조 심",
      "죽 을",
      "지 가",
      "지 고",
      "지 지",
      "찾 습니다",
      "최 후의",
      "최 악의",
      "케 이",
      "코 리아",
      "타 락",
      "투 자",
      "트 라",
      "페 르",
      "피 스",
      "하 자",
      "후 작",
      "세계 관",
      "헌터 로",
      "마법 의",
      "재벌 까지",
      "기사 는",
      "사이 비",
      "사이 에",
      "망나니 는",
      "우리 의",
      "재능 이",
      "계약 직",
      "메이 저리",
      "먼치킨 이",
      "무한 전생",
      "용병 이",
      "판타지 의",
      "바람 이",
      "아니 야",
      "당신 은",
      "당신 에게",
      "종말 의",
      "음악 천재",
      "태어 나",
      "꿈꾸 다",
      "죽여 라",
      "황태 자",
      "선생 님",
      "영원 한",
      "보고 서",
      "퇴마 사",
      "다정 한",
      "길들 여",
      "파일 럿",
      "버렸 습니다",
      "편의 점",
      "프러 포즈",
      "스켈 레톤",
      "FF F급",
      "1 6",
      "d e",
      "o f",
      "o l",
      "가 수",
      "강 탈",
      "검 사가",
      "것 을",
      "골 목",
      "공 자가",
      "관 심",
      "구 의",
      "국 가",
      "꽃 은",
      "남 친",
      "네 트",
      "노 가다",
      "단 장",
      "당 했다",
      "대 군",
      "대 생",
      "데 몬",
      "돌 이",
      "드 루",
      "드 리",
      "드 릴",
      "들 은",
      "라 니",
      "리 언",
      "마 에",
      "만 난",
      "만 세",
      "맞 선",
      "매 화",
      "묵 시록",
      "물 의",
      "밤 을",
      "보 디",
      "보 우",
      "본 능",
      "부 가",
      "부 수",
      "비 의",
      "사 업",
      "스 승",
      "시 나",
      "실 패",
      "아 주",
      "어 나",
      "에 스",
      "여 기",
      "염 의",
      "였 던",
      "왕 녀",
      "용 을",
      "유 저",
      "이 가",
      "이 미",
      "자 유",
      "전 문",
      "전 이",
      "졸 업",
      "지 로",
      "지 하",
      "추 리",
      "클 라",
      "클 리어",
      "타 고",
      "터 치",
      "특 수",
      "팩 트",
      "포 텐",
      "프 레",
      "플 로",
      "하 신다",
      "해 라",
      "향 해",
      "호 텔",
      "홀 릭",
      "마법 소녀",
      "작가 가",
      "연애 의",
      "주인공 은",
      "플레이어 의",
      "던전 을",
      "그대 가",
      "재능 으로",
      "빙의 한",
      "남편 을",
      "대한 제국",
      "무공 을",
      "월드 스타",
      "찾아 서",
      "흑막 의",
      "공녀 님",
      "그래 도",
      "만들 기",
      "작전 명",
      "사령 관",
      "어둠 의",
      "알았 는데",
      "찬란 한",
      "잔인 한",
      "스마트 폰",
      "5 00",
      "B l",
      "D e",
      "R e",
      "s 급",
      "가 라",
      "가 져",
      "갑 자기",
      "갔 다",
      "거 야",
      "겠 습니까",
      "겨 진",
      "고 등",
      "곳 에",
      "과 금",
      "구 미",
      "귤 러",
      "근 육",
      "기 술",
      "내 꺼",
      "눈 의",
      "니 는",
      "달 을",
      "대 의",
      "도 가",
      "돈 이",
      "되 었",
      "드 로",
      "뜻 대로",
      "려 고",
      "리 그",
      "마 르",
      "많 은",
      "말 을",
      "망 국의",
      "메 타",
      "멜 로",
      "미 로",
      "미 션",
      "미 안",
      "반 역",
      "베 르",
      "병 사",
      "보 스의",
      "보 인다",
      "본 다",
      "봄 이",
      "브 라",
      "사 자의",
      "삼 킨",
      "세 가의",
      "셜 록",
      "수 업",
      "스 텟",
      "스 톤",
      "신 세계",
      "아 서",
      "악 인",
      "업 자",
      "여 주",
      "열 혈",
      "였 습니다",
      "예 쁜",
      "왕 자의",
      "왕 자가",
      "이 레",
      "이 트",
      "자 동",
      "자 들의",
      "잡 고",
      "정 상",
      "제 안",
      "조 용",
      "지 니",
      "차 가",
      "천 국",
      "천 왕",
      "청 소",
      "쳤 다",
      "출 신",
      "포 터",
      "학 생이",
      "해 주세요",
      "해 드립니다",
      "환 영",
      "황 궁",
      "회 장",
      "효 과",
      "회귀 록",
      "회귀 를",
      "세계 는",
      "마법 이",
      "생활 기",
      "아포칼립스 에서",
      "남자 가",
      "마왕 님",
      "스타 트",
      "무림 에서",
      "전생 이",
      "배우 가",
      "무한 의",
      "레벨업 하는",
      "막내 는",
      "시대 의",
      "나라 를",
      "운명 을",
      "어서 오세요",
      "야구 를",
      "이름 은",
      "부부 의",
      "도련 님은",
      "아기 부터",
      "고구 려",
      "구미 호",
      "1 권",
      "6 6",
      "E R",
      "O Z",
      "a b",
      "r o",
      "s e",
      "u n",
      "v i",
      "가 신다",
      "간 의",
      "건 설",
      "검 객",
      "검 왕",
      "격 수",
      "곤 륜",
      "골 렘",
      "공 학",
      "구 단",
      "그 와",
      "그 레이",
      "기 의",
      "꿈 의",
      "끝 에서",
      "난 이",
      "내 려",
      "니 티",
      "더 라",
      "되 기로",
      "둔 재",
      "디 자",
      "때 까지",
      "뜨 는",
      "러 스",
      "리 버스",
      "만 리",
      "머 릿",
      "메 디",
      "명 문",
      "모 리",
      "몸 에",
      "무 엇",
      "미 녀",
      "백 의",
      "버 그",
      "버 프",
      "볼 러",
      "부 동",
      "사 장",
      "서 브",
      "성 자",
      "속 삭",
      "쉬 고",
      "승 부",
      "시 골",
      "신 공",
      "심 판",
      "어 진",
      "엔 터",
      "연 의",
      "염 라",
      "오 면",
      "와 이",
      "이 후의",
      "일 드",
      "일 이",
      "자 를",
      "잘 못",
      "적 이",
      "제 갈",
      "제 패",
      "졌 어요",
      "조 금",
      "조 상",
      "주 워",
      "찾 은",
      "천 기",
      "최 상",
      "카 오스",
      "클 로",
      "타 인",
      "태 극",
      "투 신",
      "합 시다",
      "해 의",
      "했 던",
      "헬 창",
      "호 위",
      "흔 한",
      "회귀 했는데",
      "게임 은",
      "게임 을",
      "게임 이",
      "마왕 을",
      "세상 에",
      "능력 으로",
      "멸망 할",
      "아들 로",
      "이계 의",
      "군주 의",
      "차원 의",
      "미래 에서",
      "들어 왔다",
      "살인 사건",
      "성좌 가",
      "기적 을",
      "시스템 으로",
      "집착 한다",
      "고양이 가",
      "노예 가",
      "성공 기",
      "ss s급",
      "영혼 의",
      "아닌 데요",
      "노블 오즈",
      "지켜 라",
      "사무 소",
      "양아 치",
      "인공 지능",
      "마에 스트로",
      "이레 귤러",
      "조용 히",
      "1 인",
      "3 00",
      "I N",
      "I T",
      "각 시",
      "강 사",
      "강 태",
      "개 척",
      "걸 린",
      "관 종",
      "교 수가",
      "그 들의",
      "금 융",
      "기 묘한",
      "길 을",
      "김 에",
      "끌 림",
      "낙 하",
      "날 아",
      "농 사",
      "눈 부",
      "달 인",
      "대 제",
      "대 우가",
      "데 릴",
      "돼 지",
      "들 고",
      "라 리",
      "랭 킹",
      "로 봇",
      "론 의",
      "리 고",
      "마 수",
      "마 존",
      "마 피아",
      "맞 고",
      "먹 다",
      "멋 대로",
      "명 서",
      "모 델",
      "모 래",
      "무 영",
      "미 국",
      "번 개",
      "별 의",
      "불 러",
      "사 장님",
      "셋 째",
      "손 자",
      "스 위",
      "스 폰",
      "시 녀",
      "쓴 다",
      "씹 어",
      "아 콰",
      "아 크",
      "안 개",
      "안 아",
      "야 한",
      "야 행",
      "업 어",
      "여 명",
      "오 만한",
      "요 정",
      "우 드",
      "우 울",
      "원 이",
      "원 해",
      "웹 소설",
      "의 사",
      "이 터",
      "잃 은",
      "자 식",
      "잔 혹",
      "잘 못된",
      "잡 캐",
      "저 드",
      "정 치",
      "진 심",
      "치 고",
      "치 명",
      "크 라",
      "탐 하다",
      "터 파",
      "팀 장",
      "파 멸",
      "평 행",
      "플 래",
      "할 래요",
      "해 줘",
      "호 랑이",
      "홈 즈",
      "황 혼",
      "훔 치다",
      "사랑 하지",
      "아카데미 가",
      "살아 가기",
      "스타 의",
      "전생 에",
      "세상 은",
      "재능 의",
      "시작 부터",
      "네크 로",
      "정령 왕",
      "초월 급",
      "몬스터 가",
      "이라 도",
      "여행 자",
      "10 년",
      "처음 부터",
      "흑막 이",
      "캐릭터 로",
      "하나 로",
      "떨어 졌다",
      "바다 의",
      "테이 밍",
      "황녀 님",
      "키운 다",
      "미치 도록",
      "죽이 고",
      "저주 받은",
      "관리 자",
      "폭풍 의",
      "미스터 리",
      "엄마 가",
      "계승 자",
      "감정 사",
      "지독 한",
      "건물 주",
      "언제 나",
      "보디 가드",
      "메디 컬",
      "낙하 산",
      "데릴 사위",
      "아콰 터파",
      "아콰터파 나",
      "2 4",
      "3 부",
      "5 권",
      "C E",
      "L i",
      "S t",
      "a y",
      "걷 는",
      "걸 까",
      "교 사",
      "그 가",
      "그 렇게",
      "기 행",
      "꽃 의",
      "내 기",
      "노 트",
      "눈 떠보니",
      "독 립",
      "독 보",
      "독 존",
      "되 겠습니다",
      "될 까요",
      "둘 째",
      "드 레스",
      "따 위",
      "때 문",
      "랍 니다",
      "리 메이",
      "마 가",
      "마 다",
      "말 아",
      "망 했다",
      "무 슨",
      "미 남",
      "미 식",
      "믿 지",
      "바 바",
      "반 의",
      "변 경",
      "부 는",
      "부 적",
      "부 르는",
      "불 건",
      "불 행",
      "블 리",
      "비 행",
      "살 기",
      "살 려",
      "살 부터",
      "삼 키다",
      "삽 니다",
      "상 처",
      "생 기",
      "설 명서",
      "세 의",
      "센 터",
      "수 를",
      "스 틸",
      "스 피",
      "시 계",
      "시 는",
      "시 절",
      "시 즌",
      "신 기",
      "신 사",
      "신 성",
      "싹 쓸",
      "아 레",
      "악 한",
      "야 의",
      "어 의",
      "얻 었다",
      "여 신",
      "연 중",
      "열 전",
      "오 른",
      "오 지",
      "운 영",
      "워 커",
      "원 의",
      "웠 습니다",
      "위 저드",
      "이 든",
      "이 후",
      "이 것이",
      "일 인",
      "잠 든",
      "저 는",
      "제 발",
      "조 의",
      "죽 는",
      "지 나",
      "집 행",
      "천 신",
      "취 업",
      "취 직",
      "치 료",
      "탐 닉",
      "택 배",
      "테 니스",
      "토 록",
      "통 일",
      "트 럭",
      "패 도",
      "퍼 스트",
      "평 화",
      "포 로",
      "하 급",
      "하 녀",
      "하 드",
      "해 버렸다",
      "황 자",
      "회 의",
      "흔 적",
      "천재 배우",
      "마법 천재",
      "환생 자",
      "SS S",
      "SS 급",
      "결혼 식",
      "라이 트",
      "무림 인",
      "사이 보",
      "인생 을",
      "황제 까지",
      "아들 은",
      "제국 을",
      "드래곤 을",
      "축구 선수",
      "고인물 의",
      "좀비 가",
      "소환 수",
      "스킬 로",
      "검술 명가",
      "나라 의",
      "현대 생활",
      "정복 기",
      "정복 자",
      "일기 장",
      "12 3",
      "19 8",
      "데이 트",
      "여름 의",
      "태양 을",
      "제로 의",
      "그라 운드의",
      "테이 머",
      "망겜 의",
      "조연 이",
      "사제 가",
      "도련 님이",
      "욕망 의",
      "99999999 9",
      "이웃 집",
      "소원 을",
      "캐리 한다",
      "부탁 해",
      "천마신 교",
      "영업 사원",
      "화려 한",
      "다이아몬 드",
      "아티 팩트",
      "드루 이드",
      "차가 운",
      "리메이 크",
      "싹쓸 이",
      "4 권",
      "N A",
      "N S",
      "N o",
      "R P",
      "V I",
      "a g",
      "i t",
      "각 인",
      "갇 힌",
      "개 미",
      "개 인",
      "거 기",
      "건 국",
      "검 선",
      "고 민",
      "광 풍",
      "군 대",
      "극 한",
      "기 획",
      "꼬 리",
      "날 의",
      "남 작",
      "남 주의",
      "님 과",
      "닙 니다",
      "단 장이",
      "대 왕",
      "대 학",
      "대 사형",
      "덩 이",
      "데 레",
      "되 지",
      "들 지",
      "등 반",
      "따 가",
      "뜻 밖의",
      "로 얄",
      "로 의",
      "르 면",
      "리 미",
      "마 물",
      "마 켓",
      "문 의",
      "민 이",
      "바 로",
      "방 식",
      "병 약",
      "보 려",
      "보 호",
      "보 이는",
      "블 레이드",
      "빛 이",
      "사 수",
      "새 로운",
      "생 긴",
      "서 포터",
      "설 계",
      "성 을",
      "소 한",
      "수 리",
      "수 컷",
      "술 의",
      "숨 긴",
      "숨 겨진",
      "시 선",
      "시 의",
      "시 켜",
      "시 겠습니까",
      "신 전",
      "심 한",
      "쓰 다",
      "씹 어먹",
      "아 나",
      "아 스",
      "아 일",
      "악 몽",
      "안 티",
      "애 니",
      "애 하는",
      "야 수의",
      "어 떻",
      "어 른",
      "어 렵다",
      "없 습니다",
      "에 요",
      "여 기사",
      "열 애",
      "예 정",
      "왕 세",
      "왕 은",
      "용 이",
      "운 빨",
      "유 튜",
      "은 하",
      "이 루",
      "이 용",
      "이 스트",
      "일 대기",
      "자 다",
      "쟁 패",
      "전 트",
      "정 신",
      "주 운",
      "주 행",
      "찍 는",
      "챔 피",
      "천 선",
      "체 인지",
      "초 상",
      "초 콜",
      "출 세",
      "커 플",
      "큐 피",
      "클 리",
      "템 빨",
      "티 어",
      "팀 장님",
      "파 는",
      "파 라",
      "파 워",
      "피 를",
      "필 더",
      "해 커",
      "해 먹음",
      "황 홀",
      "후 작가의",
      "흐 른다",
      "회귀 하니",
      "사랑 과",
      "헌터 님",
      "아이 를",
      "던전 의",
      "영웅 전",
      "그대 는",
      "계약 자",
      "그녀 가",
      "복수 는",
      "비밀 의",
      "괴물 이",
      "아내 를",
      "파이 터",
      "마녀 와",
      "공주 님의",
      "심장 의",
      "폭군 이",
      "우주 에서",
      "리아 의",
      "종말 에",
      "하늘 을",
      "필요 한",
      "죽여 주는",
      "학원 의",
      "전남편 의",
      "치트 키",
      "11 권",
      "사용 법",
      "죽어 야",
      "에이 전트",
      "파괴 자",
      "키우 기",
      "가상 현실",
      "버려 진",
      "미드 필더",
      "실험 체",
      "싸이 코",
      "부동 산",
      "속삭 임",
      "챔피 언",
      "초콜 릿",
      "1 99",
      "2 00",
      "6 권",
      "A L",
      "L B",
      "L e",
      "M r",
      "e n",
      "i s",
      "가 게",
      "가 까",
      "개 과",
      "거 미",
      "겠 어",
      "경 비",
      "경 성",
      "곤 란",
      "과 학",
      "구 하는",
      "께 서",
      "끝 나",
      "나 타",
      "나 혼자만",
      "내 는",
      "너 만",
      "농 부",
      "능 한",
      "대 군주",
      "도 우",
      "되 나요",
      "듀 얼",
      "루 션",
      "마 리",
      "마 치",
      "마 탑",
      "많 음",
      "맘 대로",
      "머 무",
      "멋 진",
      "메 카",
      "명 예",
      "모 르",
      "모 른다",
      "목 표",
      "미 의",
      "받 아",
      "밤 이",
      "방 치",
      "번 만",
      "보 기",
      "부 대",
      "분 노",
      "불 사의",
      "비 가",
      "비 선",
      "비 스",
      "비 스트",
      "사 양",
      "살 이",
      "살 해",
      "상 냥",
      "상 담",
      "서 다",
      "소 시",
      "손 만",
      "손 에",
      "쇼 윈",
      "숨 결",
      "신 룡",
      "싱 글",
      "쌍 둥이",
      "아 닙니다",
      "악 덕",
      "않 다",
      "어 쌔",
      "언 니",
      "에 고",
      "엔 젤",
      "연 기를",
      "열 매",
      "원 작",
      "원 나잇",
      "위 기",
      "유 기",
      "으 러",
      "은 둔",
      "을 수록",
      "인 사",
      "잊 혀",
      "잖 아",
      "잠 만",
      "잠 자는",
      "장 에서",
      "장 남은",
      "재 력",
      "전 선",
      "정 도",
      "정 체",
      "족 의",
      "죽 인",
      "준 다",
      "즐 거운",
      "진 천",
      "질 주",
      "짐 꾼",
      "참 교육",
      "창 술",
      "천 무",
      "최 애",
      "친 절한",
      "카 우",
      "카 이",
      "컴 퓨",
      "타 격",
      "테 일",
      "파 란",
      "파 의",
      "파 혼",
      "푸 드",
      "프 렌",
      "피 의",
      "피 지컬",
      "하 지만",
      "해 봤",
      "했 지만",
      "허 니",
      "협 전",
      "호 러",
      "홀 리",
      "회 장님",
      "회귀 의",
      "귀환 자는",
      "천마 를",
      "라이 브",
      "소설 을",
      "인생 의",
      "그대 와",
      "축구 를",
      "연인 들",
      "남편 의",
      "엑스트라 는",
      "전쟁 의",
      "아니 라",
      "스킬 은",
      "오늘 의",
      "인데 요",
      "신화 를",
      "무공 천재",
      "무공 으로",
      "지옥 의",
      "힐러 가",
      "짐승 의",
      "너에게 로",
      "게이트 가",
      "이번 엔",
      "오빠 가",
      "가면 의",
      "떨어 진",
      "되기 까지",
      "그래 서",
      "피아 노",
      "연기 천재",
      "특성 으로",
      "새벽 의",
      "미치 다",
      "탈출 기",
      "죽어 도",
      "후회 는",
      "카르 탄",
      "an d",
      "배틀 로얄",
      "철혈 의",
      "타이 탄",
      "경험 치",
      "출근 합니다",
      "교수 님",
      "사이코 패스",
      "금지 된",
      "메이저리 거",
      "와이 프",
      "최상 위",
      "치명 적인",
      "사이보 그",
      "어떻 게",
      "컴퓨 터",
      "3 6",
      "8 권",
      "B 급",
      "M A",
      "M y",
      "M LB",
      "a c",
      "i c",
      "t o",
      "v s",
      "y ou",
      "가 즈",
      "가 챠",
      "감 각",
      "갑 부",
      "같 다",
      "거 지",
      "계 략",
      "고 물",
      "관 한",
      "교 관",
      "구 독",
      "구 한다",
      "군 의",
      "군 이",
      "귀 농",
      "그 저",
      "극 의",
      "금 서",
      "기 자",
      "난 다",
      "너 로",
      "네 요",
      "놈 의",
      "눈 동",
      "뉴 스",
      "달 에",
      "대 면",
      "대 처",
      "데 기",
      "도 전",
      "돌 려",
      "되 겠다",
      "됩 니다",
      "들 과",
      "디 멘",
      "렉 터",
      "로 더",
      "로 판",
      "르 의",
      "마 탑의",
      "만 큼",
      "많 아",
      "말 단",
      "먼 저",
      "면 서",
      "목 숨",
      "물 리",
      "미 연",
      "바 뀌",
      "바 른",
      "발 렌",
      "방 울",
      "백 만",
      "백 만장자",
      "베 일",
      "보 석",
      "보 지",
      "보 았다",
      "복 사",
      "복 싱",
      "봄 날",
      "봄 을",
      "부 하",
      "빠 지다",
      "빨 간",
      "사 부",
      "사 생",
      "삼 촌",
      "상 남자",
      "성 이",
      "섹 시한",
      "솔 로",
      "술 사가",
      "숲 에",
      "스 팀",
      "승 승",
      "시 아의",
      "실 의",
      "싸 우는",
      "안 드로",
      "야 릇",
      "야 망",
      "에 덴",
      "여 자가",
      "여 동생",
      "역 병",
      "열 차",
      "오 디",
      "오 신",
      "온 도",
      "와 일드",
      "완 전",
      "왕 관",
      "왕 좌",
      "우 다",
      "월 야",
      "월 하",
      "웹 툰",
      "이 어",
      "인 가",
      "자 격",
      "작 품",
      "장 구",
      "장 을",
      "전 능",
      "정 사",
      "종 횡",
      "죽 는다",
      "줍 다",
      "지 랄",
      "지 를",
      "지 망",
      "착 각",
      "찾 는",
      "처 녀",
      "처 리",
      "천 검",
      "천 사가",
      "코 더",
      "코 트",
      "크 로스",
      "키 스의",
      "킨 다",
      "킹 덤",
      "타 워",
      "타 자",
      "탐 욕",
      "티 드",
      "포 션",
      "하 나의",
      "학 살자",
      "형 제",
      "혼 인",
      "혼 돈의",
      "홈 런",
      "화 살",
      "화 이트",
      "확 률",
      "흑 마법",
      "천재 작가",
      "회귀 한다",
      "사랑 하라",
      "재벌 3세",
      "마법사 로",
      "살아 간다",
      "환생 기",
      "주인 님",
      "라이 크",
      "아이 언",
      "소설 에",
      "사이 다",
      "플레이어 가",
      "인생 은",
      "그대 로",
      "그대 의",
      "멸망 의",
      "생존 법",
      "재능 만렙",
      "복수 하는",
      "용병 왕",
      "천하 무적",
      "바람 둥이",
      "공작 부인",
      "미래 가",
      "괴물 을",
      "사냥꾼 의",
      "그리 다",
      "마녀 를",
      "100 년",
      "소드마스터 의",
      "사람 을",
      "아빠 는",
      "ve r",
      "산다 는",
      "이라 고",
      "이라 니",
      "여행 기",
      "늑대 가",
      "가지 고",
      "톱스타 의",
      "좋아 해",
      "처음 이",
      "만나 요",
      "연예 인",
      "떨어 지다",
      "암살 자가",
      "사내 연애",
      "랭커 의",
      "은퇴 한",
      "마나 가",
      "스탯 이",
      "스페 이스",
      "99999999 9999",
      "개발 자",
      "축복 을",
      "스카 우",
      "모음 집",
      "버림 받은",
      "멜로 디",
      "그레이 트",
      "때문 에",
      "바바 리안",
      "RP G",
      "VI P",
      "황홀 한",
      "개과 천선",
      "비선 실",
      "쇼윈 도",
      "어쌔 신",
      "잊혀 진",
      "스팀 펑크",
      "승승 장구",
      "0 2",
      "2 세",
      "3 회차",
      "5 0",
      "7 0",
      "9 급",
      "D 급",
      "D NA",
      "L ove",
      "M e",
      "N E",
      "T H",
      "X X",
      "a st",
      "i on",
      "l ove",
      "t er",
      "가 이",
      "가 이드",
      "각 하",
      "감 옥",
      "개 망나니",
      "객 잔",
      "걷 다",
      "견 문",
      "고 래",
      "고 수가",
      "공 식",
      "공 자는",
      "공 학자",
      "광 전사",
      "구 리",
      "구 슬",
      "구 하",
      "구 현",
      "구 하면",
      "군 벌",
      "권 능",
      "그 곳에",
      "금 단의",
      "깊 이",
      "나 한테",
      "낭 만",
      "너 스",
      "눈 이",
      "니 트",
      "님 을",
      "다 르다",
      "다 니는",
      "당 의",
      "당 함",
      "대 역",
      "대 충",
      "대 행",
      "대 항해",
      "더 블",
      "도 로",
      "도 박",
      "독 비",
      "돌 파",
      "동 료",
      "동 의",
      "드 롬",
      "드 시",
      "따 라",
      "렉 스",
      "려 는",
      "로 서",
      "루 나",
      "루 프",
      "르 지",
      "리 버",
      "마 약",
      "막 내가",
      "맞 춤",
      "매 드",
      "맹 세",
      "먹 지",
      "명 품",
      "모 드",
      "무 료",
      "무 서",
      "무 능력",
      "물 량",
      "미 야",
      "미 학",
      "미 쳤다",
      "바 뀐",
      "바 디",
      "바 리",
      "받 았다",
      "배 드",
      "베 스트",
      "보 물",
      "본 주의",
      "볼 루션",
      "봄 의",
      "불 괴",
      "불 법",
      "불 의",
      "비 즈",
      "빠 져",
      "쁘 다",
      "사 망",
      "상 상",
      "색 의",
      "생 사",
      "서 고",
      "서 버",
      "서 자는",
      "선 비",
      "성 검",
      "세 종",
      "셰 이크",
      "손 으로",
      "수 석",
      "수 행",
      "순 수",
      "숲 의",
      "스 며",
      "스 즈",
      "식 을",
      "식 의",
      "신 대륙",
      "신 드롬",
      "십 니까",
      "아 우",
      "알 려",
      "액 션",
      "얀 데레",
      "억 만장자",
      "없 음",
      "여 왕의",
      "연 극",
      "열 등",
      "영 재",
      "옆 집에",
      "오 래",
      "오 픈",
      "와 요",
      "왕 기",
      "외 동",
      "워 크",
      "윈 터",
      "으 니",
      "은 빛",
      "이 닝",
      "이 래",
      "이 러",
      "이 지만",
      "익 스",
      "인 턴",
      "일 단",
      "일 본",
      "일 어",
      "일 간의",
      "임 페",
      "자 본주의",
      "잖 아요",
      "장 교",
      "재 건",
      "전 부",
      "전 성",
      "접 근",
      "접 수",
      "정 략",
      "제 독",
      "조 작",
      "조 폭",
      "존 재",
      "준 비",
      "지 킨다",
      "짓 는",
      "차 남은",
      "창 천",
      "책 임",
      "천 산",
      "천 상",
      "천 애",
      "청 년",
      "최 대",
      "최 면",
      "추 구하면",
      "취 하다",
      "치 를",
      "카 운",
      "칼 날",
      "캐 가",
      "태 평",
      "태 양이",
      "테 스터",
      "퇴 물",
      "틀 린",
      "파 업",
      "평 정",
      "포 츠",
      "하 사",
      "하 셨다",
      "향 하여",
      "헌 팅",
      "헤 어",
      "현 상",
      "호 구",
      "호 의",
      "환 동",
      "히 의",
      "회귀 해",
      "회귀 빨로",
      "헌터 를",
      "마왕 성",
      "무림 최강",
      "전생 을",
      "전생 의",
      "우리 들의",
      "황제 를",
      "멸망 을",
      "재능 충",
      "계약 결혼",
      "그녀 와",
      "그녀 에게",
      "빌런 은",
      "엑스트라 로",
      "네크로맨서 는",
      "친구 는",
      "기억 의",
      "심장 에",
      "회귀자 를",
      "키스 를",
      "월드 클래스",
      "종말 을",
      "주의 보",
      "방송 천재",
      "파이어 볼러",
      "처음 이지",
      "지배 하는",
      "하늘 의",
      "19 4",
      "태어 났다",
      "행복 한",
      "NPC 가",
      "아찔 하게",
      "하루 히의",
      "방랑 자",
      "귀족 이",
      "도련 님",
      "죽이 기",
      "천년 의",
      "하룻 밤의",
      "남주 를",
      "깨어 난",
      "스토 커",
      "천만 배우",
      "가정 부",
      "달라 졌어요",
      "경이 로운",
      "환영 합니다",
      "머릿 속에",
      "스폰 서",
      "불건 전한",
      "아일 랜드",
      "머무 는",
      "디멘 션",
      "스즈 미야",
      "2 5",
      "2 차",
      "3 7",
      "7 권",
      "E 급",
      "N e",
      "S F",
      "S T",
      "V S",
      "o d",
      "가 야",
      "강 의",
      "것 들",
      "경 호",
      "계 의",
      "고 대",
      "고 생",
      "관 하여",
      "광 해",
      "괴 담",
      "구 두",
      "구 하라",
      "국 회의",
      "귀 찮",
      "귀 향",
      "그 늘",
      "글 로",
      "기 어",
      "기 에",
      "꼴 통",
      "꽃 길",
      "꽃 잎",
      "꾸 는",
      "꿀 빠는",
      "나 가는",
      "낙 인",
      "남 매",
      "남 작가의",
      "너 라는",
      "네 버",
      "년 의",
      "농 장",
      "뇌 신",
      "눈 꽃",
      "뉴 욕",
      "다 이스",
      "달 링",
      "답 하라",
      "대 는",
      "대 도",
      "더 스",
      "던 짐",
      "도 발",
      "도 한다",
      "동 안",
      "돼 요",
      "두 번째",
      "들 레",
      "등 장",
      "딸 로",
      "뛰 는",
      "랑 의",
      "랭 크",
      "러 리",
      "레 터",
      "로 우",
      "룡 기",
      "리 더",
      "리 오",
      "린 의",
      "마 마",
      "마 침",
      "막 는",
      "만 으로",
      "말 할",
      "매 력",
      "멈 춰",
      "모 닝",
      "무 너",
      "무 도",
      "뭔 가",
      "미 소녀",
      "반 드시",
      "발 할",
      "방 어",
      "버 리",
      "병 이",
      "봉 인",
      "북 벌",
      "분 식",
      "불 어",
      "뷰 티",
      "브 로",
      "비 정",
      "뿐 인",
      "사 고",
      "사 육",
      "사 채",
      "살 겠습니다",
      "삶 을",
      "상 관",
      "상 왕",
      "서 머",
      "셨 습니다",
      "소 이다",
      "손 님",
      "손 을",
      "쉬 운",
      "스 톰",
      "스 나이",
      "슬 픈",
      "승 자",
      "시 험",
      "신 랑",
      "신 흥",
      "실 력",
      "실 록",
      "싫 은",
      "심 연",
      "쏟 아",
      "아 님",
      "아 마",
      "아 파트",
      "안 전",
      "알 아",
      "야 차",
      "었 어",
      "었 는데",
      "연 구",
      "예 고",
      "예 뻐",
      "오 프",
      "올 인",
      "완 결",
      "왕 후",
      "왕 전기",
      "왕 국의",
      "울 지",
      "원 래",
      "웨 폰",
      "유 토",
      "으 세요",
      "이 게",
      "이 고",
      "이 리",
      "이 성",
      "이 탈",
      "이 토록",
      "인 과",
      "인 터",
      "인 으로",
      "일 에",
      "일 을",
      "입 맞춤",
      "자 연",
      "자 와",
      "잘 하는",
      "잠 깐",
      "장 은",
      "장 인",
      "재 워",
      "저 택",
      "저 세상",
      "전 신",
      "제 3",
      "제 비",
      "져 라",
      "주 술",
      "죽 일",
      "중 고",
      "증 후",
      "지 침",
      "집 어",
      "책 을",
      "철 검",
      "첫 사랑이",
      "청 부",
      "쳐 라",
      "총 잡이",
      "코 딩",
      "코 스",
      "크 레이",
      "키 움",
      "키 퍼",
      "타 곤",
      "탈 모",
      "탑 배우",
      "탑 셰프",
      "테 리",
      "특 허",
      "파 천",
      "페 미",
      "폐 인",
      "표 류",
      "프 라이",
      "플 렉스",
      "피 해",
      "피 하는",
      "하 시겠습니까",
      "한 여름",
      "현 세",
      "혹 은",
      "화 점",
      "환 의",
      "활 용",
      "황 비",
      "황 이",
      "회 개",
      "훔 친",
      "흐 르는",
      "흑 룡",
      "흑 마법사의",
      "사랑 하다",
      "아카데미 를",
      "마법 으로",
      "마법 명가",
      "재벌 로",
      "최강 이",
      "아포칼립스 를",
      "라이 즈",
      "라이 징",
      "에게 는",
      "전생 했더니",
      "레벨 이",
      "능력 은",
      "영웅 을",
      "영웅 으로",
      "생존 자",
      "축구 의",
      "시작 합니다",
      "용병 의",
      "군주 가",
      "악당 을",
      "고인물 은",
      "연인 의",
      "바람 과",
      "차원 이",
      "네크로맨서 의",
      "친구 가",
      "영주 님은",
      "공주 와",
      "미친 놈이",
      "소드마스터 가",
      "아이돌 의",
      "보스 가",
      "구원 자가",
      "슈퍼 리치",
      "이라 는",
      "바이 킹",
      "시스템 이",
      "찾아 왔다",
      "비서 의",
      "야구 의",
      "10 권",
      "현실 이",
      "사기 캐",
      "하늘 에서",
      "이름 을",
      "이름 으로",
      "단편 선",
      "필요 하다",
      "평범 하게",
      "하루 만",
      "나비 의",
      "불꽃 의",
      "고려 의",
      "영원 히",
      "다이 어리",
      "무협 지",
      "인형 의",
      "피어 난",
      "진화 한다",
      "야만 전사",
      "트로 피",
      "지독 하게",
      "기생 충",
      "약혼 녀",
      "반짝 반짝",
      "사로잡 힌",
      "후계 자가",
      "매혹 의",
      "최약 체",
      "크로 니",
      "그들 만의",
      "바꾸 는",
      "입학 했다",
      "최초 의",
      "첫날 밤",
      "감평 용",
      "거부 할",
      "내일 은",
      "무림맹 주",
      "금강 불괴",
      "독재 자",
      "사진 기사",
      "드릴 게요",
      "어나 더",
      "지니 어",
      "스위 트",
      "정체 를",
      "카우 보이",
      "바뀌 었다",
      "야릇 한",
      "오디 션",
      "스카우 트",
[...]
